#include "tensorflow/lite/micro/examples/hello_world/model_food.h"

alignas(8) const unsigned char model_food_tflite[] = {
  0x1c, 0x00, 0x00, 0x00, 0x54, 0x46, 0x4c, 0x33, 0x14, 0x00, 0x20, 0x00,
  0x04, 0x00, 0x08, 0x00, 0x0c, 0x00, 0x10, 0x00, 0x14, 0x00, 0x00, 0x00,
  0x18, 0x00, 0x1c, 0x00, 0x14, 0x00, 0x00, 0x00, 0x03, 0x00, 0x00, 0x00,
  0x4c, 0x00, 0x00, 0x00, 0x40, 0x00, 0x00, 0x00, 0xa4, 0x00, 0x00, 0x00,
  0x0c, 0x00, 0x00, 0x00, 0x4c, 0x00, 0x00, 0x00, 0x44, 0x00, 0x00, 0x00,
  0x0a, 0x00, 0x00, 0x00, 0x0c, 0x3f, 0x00, 0x00, 0x08, 0x3f, 0x00, 0x00,
  0x78, 0x3d, 0x00, 0x00, 0xd8, 0x3c, 0x00, 0x00, 0xc8, 0x0b, 0x00, 0x00,
  0x34, 0x03, 0x00, 0x00, 0xf4, 0x3e, 0x00, 0x00, 0xf0, 0x3e, 0x00, 0x00,
  0xec, 0x3e, 0x00, 0x00, 0x50, 0x00, 0x00, 0x00, 0x01, 0x00, 0x00, 0x00,
  0x88, 0x00, 0x00, 0x00, 0x02, 0x00, 0x00, 0x00, 0x84, 0x02, 0x00, 0x00,
  0x24, 0x01, 0x00, 0x00, 0x00, 0x00, 0x00, 0x00, 0x01, 0x00, 0x00, 0x00,
  0x0c, 0x00, 0x00, 0x00, 0x08, 0x00, 0x0c, 0x00, 0x04, 0x00, 0x08, 0x00,
  0x08, 0x00, 0x00, 0x00, 0x08, 0x00, 0x00, 0x00, 0x09, 0x00, 0x00, 0x00,
  0x13, 0x00, 0x00, 0x00, 0x6d, 0x69, 0x6e, 0x5f, 0x72, 0x75, 0x6e, 0x74,
  0x69, 0x6d, 0x65, 0x5f, 0x76, 0x65, 0x72, 0x73, 0x69, 0x6f, 0x6e, 0x00,
  0xfa, 0xc2, 0xff, 0xff, 0x04, 0x00, 0x00, 0x00, 0x10, 0x00, 0x00, 0x00,
  0x31, 0x2e, 0x35, 0x2e, 0x30, 0x00, 0x00, 0x00, 0x00, 0x00, 0x00, 0x00,
  0x00, 0x00, 0x00, 0x00, 0x0f, 0x00, 0x00, 0x00, 0x4d, 0x4c, 0x49, 0x52,
  0x20, 0x43, 0x6f, 0x6e, 0x76, 0x65, 0x72, 0x74, 0x65, 0x64, 0x2e, 0x00,
  0x00, 0x00, 0x0e, 0x00, 0x18, 0x00, 0x04, 0x00, 0x08, 0x00, 0x0c, 0x00,
  0x10, 0x00, 0x14, 0x00, 0x0e, 0x00, 0x00, 0x00, 0x40, 0x00, 0x00, 0x00,
  0x34, 0x00, 0x00, 0x00, 0x28, 0x00, 0x00, 0x00, 0x14, 0x00, 0x00, 0x00,
  0x04, 0x00, 0x00, 0x00, 0x04, 0x00, 0x00, 0x00, 0x6d, 0x61, 0x69, 0x6e,
  0x00, 0x00, 0x00, 0x00, 0x03, 0x00, 0x00, 0x00, 0x94, 0x01, 0x00, 0x00,
  0xe0, 0x00, 0x00, 0x00, 0x48, 0x00, 0x00, 0x00, 0x01, 0x00, 0x00, 0x00,
  0x07, 0x00, 0x00, 0x00, 0x01, 0x00, 0x00, 0x00, 0x00, 0x00, 0x00, 0x00,
  0x08, 0x00, 0x00, 0x00, 0xcc, 0x3d, 0x00, 0x00, 0x5c, 0x3d, 0x00, 0x00,
  0x18, 0x3c, 0x00, 0x00, 0x9c, 0x3b, 0x00, 0x00, 0x88, 0x0a, 0x00, 0x00,
  0xb8, 0x01, 0x00, 0x00, 0xdc, 0x00, 0x00, 0x00, 0x54, 0x00, 0x00, 0x00,
  0x00, 0x00, 0x0e, 0x00, 0x18, 0x00, 0x08, 0x00, 0x0c, 0x00, 0x10, 0x00,
  0x07, 0x00, 0x14, 0x00, 0x0e, 0x00, 0x00, 0x00, 0x00, 0x00, 0x00, 0x09,
  0x01, 0x00, 0x00, 0x00, 0x1c, 0x00, 0x00, 0x00, 0x10, 0x00, 0x00, 0x00,
  0x04, 0x00, 0x00, 0x00, 0xca, 0xc3, 0xff, 0xff, 0x00, 0x00, 0x80, 0x3f,
  0x01, 0x00, 0x00, 0x00, 0x07, 0x00, 0x00, 0x00, 0x01, 0x00, 0x00, 0x00,
  0x06, 0x00, 0x00, 0x00, 0xb0, 0xfe, 0xff, 0xff, 0x19, 0x00, 0x00, 0x00,
  0x00, 0x00, 0x00, 0x19, 0x01, 0x00, 0x00, 0x00, 0xb8, 0xc2, 0xff, 0xff,
  0x30, 0x00, 0x00, 0x00, 0x08, 0x00, 0x00, 0x00, 0x18, 0x00, 0x00, 0x00,
  0x30, 0x00, 0x00, 0x00, 0x04, 0x00, 0x00, 0x00, 0x02, 0x00, 0x00, 0x00,
  0xff, 0xff, 0xff, 0xff, 0x0b, 0x00, 0x00, 0x00, 0x08, 0x00, 0x00, 0x00,
  0x49, 0x64, 0x65, 0x6e, 0x74, 0x69, 0x74, 0x79, 0x00, 0x00, 0x00, 0x00,
  0x02, 0x00, 0x00, 0x00, 0x01, 0x00, 0x00, 0x00, 0x0b, 0x00, 0x00, 0x00,
  0x3c, 0xc4, 0xff, 0xff, 0x00, 0x00, 0x0e, 0x00, 0x14, 0x00, 0x00, 0x00,
  0x08, 0x00, 0x0c, 0x00, 0x07, 0x00, 0x10, 0x00, 0x0e, 0x00, 0x00, 0x00,
  0x00, 0x00, 0x00, 0x08, 0x18, 0x00, 0x00, 0x00, 0x0c, 0x00, 0x00, 0x00,
  0x04, 0x00, 0x00, 0x00, 0xcc, 0xc2, 0xff, 0xff, 0x01, 0x00, 0x00, 0x00,
  0x06, 0x00, 0x00, 0x00, 0x03, 0x00, 0x00, 0x00, 0x05, 0x00, 0x00, 0x00,
  0x04, 0x00, 0x00, 0x00, 0x02, 0x00, 0x00, 0x00, 0x3c, 0xc3, 0xff, 0xff,
  0x5c, 0x00, 0x00, 0x00, 0x07, 0x00, 0x00, 0x00, 0x18, 0x00, 0x00, 0x00,
  0x5c, 0x00, 0x00, 0x00, 0x04, 0x00, 0x00, 0x00, 0x02, 0x00, 0x00, 0x00,
  0xff, 0xff, 0xff, 0xff, 0x0b, 0x00, 0x00, 0x00, 0x34, 0x00, 0x00, 0x00,
  0x73, 0x65, 0x71, 0x75, 0x65, 0x6e, 0x74, 0x69, 0x61, 0x6c, 0x2f, 0x64,
  0x65, 0x6e, 0x73, 0x65, 0x5f, 0x31, 0x2f, 0x4d, 0x61, 0x74, 0x4d, 0x75,
  0x6c, 0x3b, 0x73, 0x65, 0x71, 0x75, 0x65, 0x6e, 0x74, 0x69, 0x61, 0x6c,
  0x2f, 0x64, 0x65, 0x6e, 0x73, 0x65, 0x5f, 0x31, 0x2f, 0x42, 0x69, 0x61,
  0x73, 0x41, 0x64, 0x64, 0x00, 0x00, 0x00, 0x00, 0x02, 0x00, 0x00, 0x00,
  0x01, 0x00, 0x00, 0x00, 0x0b, 0x00, 0x00, 0x00, 0xec, 0xc4, 0xff, 0xff,
  0x00, 0x00, 0x0e, 0x00, 0x16, 0x00, 0x00, 0x00, 0x08, 0x00, 0x0c, 0x00,
  0x07, 0x00, 0x10, 0x00, 0x0e, 0x00, 0x00, 0x00, 0x00, 0x00, 0x00, 0x08,
  0x24, 0x00, 0x00, 0x00, 0x18, 0x00, 0x00, 0x00, 0x0c, 0x00, 0x00, 0x00,
  0x00, 0x00, 0x06, 0x00, 0x08, 0x00, 0x07, 0x00, 0x06, 0x00, 0x00, 0x00,
  0x00, 0x00, 0x00, 0x01, 0x01, 0x00, 0x00, 0x00, 0x05, 0x00, 0x00, 0x00,
  0x03, 0x00, 0x00, 0x00, 0x00, 0x00, 0x00, 0x00, 0x03, 0x00, 0x00, 0x00,
  0x01, 0x00, 0x00, 0x00, 0x0c, 0x00, 0x10, 0x00, 0x0b, 0x00, 0x00, 0x00,
  0x0c, 0x00, 0x04, 0x00, 0x0c, 0x00, 0x00, 0x00, 0x09, 0x00, 0x00, 0x00,
  0x00, 0x00, 0x00, 0x09, 0x01, 0x00, 0x00, 0x00, 0x14, 0xc4, 0xff, 0xff,
  0x6c, 0x00, 0x00, 0x00, 0x06, 0x00, 0x00, 0x00, 0x18, 0x00, 0x00, 0x00,
  0x6c, 0x00, 0x00, 0x00, 0x04, 0x00, 0x00, 0x00, 0x02, 0x00, 0x00, 0x00,
  0xff, 0xff, 0xff, 0xff, 0x30, 0x00, 0x00, 0x00, 0x46, 0x00, 0x00, 0x00,
  0x73, 0x65, 0x71, 0x75, 0x65, 0x6e, 0x74, 0x69, 0x61, 0x6c, 0x2f, 0x64,
  0x65, 0x6e, 0x73, 0x65, 0x2f, 0x4d, 0x61, 0x74, 0x4d, 0x75, 0x6c, 0x3b,
  0x73, 0x65, 0x71, 0x75, 0x65, 0x6e, 0x74, 0x69, 0x61, 0x6c, 0x2f, 0x64,
  0x65, 0x6e, 0x73, 0x65, 0x2f, 0x42, 0x69, 0x61, 0x73, 0x41, 0x64, 0x64,
  0x3b, 0x73, 0x65, 0x71, 0x75, 0x65, 0x6e, 0x74, 0x69, 0x61, 0x6c, 0x2f,
  0x64, 0x65, 0x6e, 0x73, 0x65, 0x2f, 0x52, 0x65, 0x6c, 0x75, 0x00, 0x00,
  0x02, 0x00, 0x00, 0x00, 0x01, 0x00, 0x00, 0x00, 0x30, 0x00, 0x00, 0x00,
  0x3c, 0xc4, 0xff, 0xff, 0xce, 0xc5, 0xff, 0xff, 0x04, 0x00, 0x00, 0x00,
  0x40, 0x08, 0x00, 0x00, 0x97, 0x0c, 0xa2, 0x3e, 0x19, 0x1e, 0x17, 0xbf,
  0xce, 0xb9, 0x2b, 0xbe, 0x41, 0x42, 0x66, 0xbc, 0x82, 0x51, 0x0f, 0xbf,
  0x60, 0x4c, 0xb8, 0xbe, 0x80, 0x4d, 0x63, 0x3f, 0xac, 0x8d, 0xdc, 0x3d,
  0xf4, 0x9d, 0x89, 0xbe, 0x07, 0x00, 0x71, 0xbd, 0x47, 0xab, 0x25, 0xbe,
  0xb2, 0x54, 0x79, 0x3e, 0xda, 0xba, 0x46, 0xbe, 0x96, 0xb7, 0xb9, 0x3d,
  0x22, 0x72, 0xf2, 0xbe, 0x28, 0xc9, 0x81, 0x3e, 0x27, 0x15, 0x43, 0x3f,
  0x59, 0x3c, 0xf3, 0x3d, 0x5d, 0x3f, 0x76, 0xbe, 0xed, 0x3f, 0x1e, 0xbd,
  0x14, 0xe8, 0x0c, 0xbd, 0xff, 0xce, 0x23, 0xbe, 0xb2, 0x39, 0xa8, 0x3e,
  0x7b, 0x83, 0x4e, 0xbe, 0x9d, 0x03, 0x91, 0xbe, 0x60, 0x94, 0x9c, 0x3e,
  0xce, 0x81, 0x68, 0xbd, 0x41, 0x5c, 0x87, 0xbe, 0x3a, 0xbf, 0x08, 0xbe,
  0x17, 0x0f, 0xa2, 0xbe, 0xbd, 0x35, 0x9d, 0xbe, 0xd2, 0x95, 0x1a, 0xbd,
  0x27, 0x79, 0xdd, 0xbe, 0xb0, 0x4a, 0xbc, 0x3e, 0xc7, 0xce, 0x38, 0x3f,
  0x3b, 0x31, 0xa0, 0xbe, 0x76, 0x48, 0x0b, 0x3f, 0x17, 0x1d, 0x11, 0x3f,
  0xe6, 0x3e, 0x70, 0xbe, 0xae, 0x5e, 0x1d, 0x3f, 0xe2, 0xda, 0x01, 0xbe,
  0xcd, 0x30, 0x51, 0xbe, 0x30, 0x10, 0x1a, 0xbd, 0x5f, 0xa9, 0x1b, 0x3f,
  0xe1, 0x5e, 0xa9, 0x3e, 0x5c, 0x3c, 0x8a, 0xbe, 0xee, 0x58, 0xe6, 0x3d,
  0xe0, 0xfb, 0x9c, 0xbe, 0x16, 0x77, 0x06, 0x3f, 0x47, 0xfd, 0xd6, 0xbe,
  0x12, 0x82, 0x25, 0xbf, 0xfe, 0xcf, 0x5d, 0xbe, 0xd7, 0x83, 0xb9, 0xbd,
  0x5d, 0xf5, 0xcd, 0xbe, 0x76, 0x55, 0x83, 0xbe, 0x78, 0xcc, 0x43, 0x3f,
  0xa7, 0x5c, 0xe0, 0x3e, 0xf3, 0xdd, 0x1b, 0xbe, 0x29, 0xa4, 0xef, 0x3e,
  0x5a, 0x87, 0x26, 0x3f, 0x6d, 0x87, 0xb5, 0xbe, 0xb0, 0x33, 0x2b, 0xbe,
  0xb1, 0x7d, 0xd4, 0xbe, 0x54, 0xab, 0xb7, 0x3d, 0xf7, 0x4a, 0xbd, 0xbd,
  0xc4, 0x8c, 0xdd, 0xbd, 0x52, 0x00, 0xca, 0xbe, 0xa2, 0x9a, 0x21, 0x3f,
  0xc8, 0x5e, 0x35, 0x3e, 0xe4, 0x75, 0x61, 0x3e, 0x93, 0x47, 0xc4, 0x3d,
  0x97, 0x64, 0xe2, 0x3d, 0xb4, 0xc5, 0xd5, 0x3e, 0xbe, 0x0b, 0x71, 0xbe,
  0xfe, 0x64, 0x4e, 0x3e, 0xeb, 0xee, 0x60, 0xbe, 0xcc, 0x2b, 0xef, 0xbd,
  0x55, 0x1c, 0xfd, 0x3d, 0xe4, 0x53, 0xbb, 0xbe, 0xc4, 0xb2, 0x87, 0xbe,
  0x60, 0x74, 0x92, 0xbe, 0x79, 0xcd, 0x8e, 0xbe, 0xc7, 0xa6, 0x20, 0x3d,
  0xea, 0xe5, 0x0f, 0xbe, 0x22, 0xfd, 0x64, 0xbd, 0xa8, 0x33, 0x0a, 0xbf,
  0x36, 0x39, 0x2b, 0x3e, 0xba, 0x26, 0x9a, 0x3c, 0x69, 0xc1, 0xd8, 0x3e,
  0x26, 0xcd, 0xb5, 0xbb, 0x1c, 0x87, 0xd9, 0xbe, 0x8f, 0xbc, 0x58, 0xbe,
  0x82, 0x2f, 0xcc, 0xbd, 0xb4, 0xd5, 0x8a, 0xbd, 0xd9, 0xe1, 0x91, 0xbd,
  0x5a, 0x94, 0x9b, 0xbe, 0x34, 0x68, 0xbf, 0xbd, 0x58, 0x4d, 0xe8, 0x3d,
  0x38, 0x78, 0x22, 0x3f, 0x58, 0xa1, 0x81, 0xbe, 0x3b, 0x06, 0x50, 0x3f,
  0x0f, 0xd9, 0x03, 0x3e, 0xad, 0x27, 0x05, 0x3e, 0x6a, 0x87, 0x5e, 0x3e,
  0x04, 0xc1, 0xa7, 0xbe, 0xf7, 0x89, 0x1a, 0xbe, 0x50, 0x11, 0x4a, 0xbe,
  0xd4, 0xdd, 0x4c, 0x3f, 0x7f, 0x70, 0xd0, 0x3e, 0xaf, 0xd0, 0x90, 0xbd,
  0x0d, 0x40, 0x1f, 0x3f, 0x73, 0x0e, 0x9a, 0xbd, 0x59, 0x23, 0xaa, 0xbe,
  0x0e, 0x13, 0xc0, 0x3d, 0x01, 0xff, 0x19, 0x3f, 0xbc, 0x3e, 0xd1, 0xbe,
  0xda, 0x4b, 0xa7, 0xbe, 0x4c, 0xc2, 0xdd, 0xbe, 0xb2, 0xc6, 0x8c, 0xbe,
  0x0a, 0x6d, 0x9c, 0x3e, 0x40, 0xd6, 0x42, 0x3e, 0x65, 0x0e, 0x86, 0x3d,
  0x29, 0xab, 0x12, 0xbf, 0x7c, 0x73, 0x82, 0xbd, 0x64, 0x54, 0xc8, 0xbe,
  0x33, 0x88, 0xa8, 0xbd, 0x50, 0xda, 0x03, 0x3f, 0xc9, 0xe8, 0xed, 0xbe,
  0xd3, 0x02, 0xa5, 0xbe, 0x5c, 0xfe, 0x87, 0x3e, 0x42, 0xd3, 0xaf, 0xbe,
  0x10, 0x8c, 0xc7, 0xbe, 0xbb, 0xfd, 0x8c, 0x3e, 0x28, 0x74, 0x0c, 0x3f,
  0xb5, 0x06, 0xa0, 0x3e, 0xed, 0xda, 0xa4, 0xbe, 0x3c, 0x7c, 0x36, 0x3e,
  0x38, 0xea, 0x1b, 0xbf, 0xff, 0xb6, 0x9e, 0x3e, 0x66, 0xa9, 0xe2, 0xbe,
  0x82, 0x7e, 0x4a, 0xbf, 0x46, 0x04, 0x57, 0x3f, 0x3c, 0xab, 0x0b, 0x3f,
  0xb8, 0xbd, 0x1b, 0xbe, 0x3a, 0xc2, 0x15, 0x3e, 0x63, 0x34, 0x40, 0xbd,
  0x09, 0x2c, 0x58, 0x3f, 0x9e, 0x74, 0x13, 0xbf, 0x2c, 0x26, 0x48, 0xbf,
  0xf8, 0x80, 0x00, 0x3f, 0xc8, 0xf2, 0x9d, 0x3e, 0xf3, 0x76, 0x84, 0xbe,
  0xf9, 0xe5, 0x2f, 0x3f, 0x66, 0xcb, 0x1e, 0xbe, 0xfb, 0xbe, 0x90, 0xbe,
  0x5f, 0xc1, 0xf6, 0xbd, 0xa3, 0xbb, 0xfd, 0x3e, 0x41, 0x96, 0x33, 0xbe,
  0xb1, 0x12, 0xd5, 0xbd, 0xbc, 0x78, 0x43, 0x3e, 0xdd, 0x3e, 0xc7, 0x3d,
  0xf9, 0x3e, 0x2d, 0x3e, 0xee, 0xa4, 0x8a, 0xbe, 0x3c, 0xc8, 0x64, 0x3d,
  0xc3, 0xa3, 0x06, 0x3e, 0x81, 0xcf, 0x72, 0x3e, 0x36, 0x6f, 0x32, 0x3f,
  0x43, 0x56, 0x0d, 0xbf, 0x67, 0x72, 0x6e, 0x3e, 0x4d, 0x77, 0x61, 0xbf,
  0x78, 0x0c, 0x81, 0x3f, 0x2e, 0xd5, 0x2f, 0x3f, 0x42, 0x64, 0x98, 0x3f,
  0x3c, 0x9a, 0x8f, 0x3e, 0xe2, 0x96, 0x64, 0x3f, 0x6d, 0x31, 0xa8, 0xbe,
  0xae, 0xa1, 0xe5, 0x3e, 0x23, 0xf3, 0x48, 0x3b, 0xc5, 0xa0, 0x8d, 0x3e,
  0x10, 0x3c, 0x3f, 0x3e, 0x9a, 0x32, 0x1f, 0xbf, 0x36, 0x5d, 0xe6, 0xbe,
  0xc5, 0x27, 0xe1, 0x3e, 0xaa, 0x82, 0x40, 0xbf, 0x5b, 0x4f, 0xa7, 0x3e,
  0xf2, 0xb0, 0x26, 0xbe, 0x26, 0x1a, 0xc8, 0x3e, 0xaa, 0x08, 0xdf, 0x3e,
  0x29, 0xb8, 0x8b, 0xbe, 0xd5, 0xbf, 0x16, 0xbf, 0xda, 0x6c, 0x0b, 0xbf,
  0x66, 0x6c, 0x77, 0xbd, 0xb8, 0x1a, 0xa1, 0xbe, 0x98, 0xa5, 0x3c, 0xbe,
  0x58, 0x2c, 0x39, 0xbf, 0x38, 0xdd, 0x44, 0x3d, 0x2f, 0x9c, 0x71, 0x3f,
  0x25, 0xbb, 0x17, 0x3f, 0xb6, 0xf7, 0xc6, 0xbd, 0xdc, 0xa2, 0xd2, 0xbd,
  0xaf, 0xea, 0xce, 0x3e, 0x35, 0x81, 0xac, 0xbe, 0x08, 0xd8, 0xed, 0x3d,
  0xcb, 0xfb, 0x38, 0xbe, 0xf0, 0xa2, 0xaf, 0xbe, 0xd8, 0x4b, 0x6f, 0xbe,
  0xf5, 0x08, 0x67, 0xbe, 0x89, 0x16, 0x88, 0x3b, 0x76, 0xe4, 0x38, 0x3e,
  0xd9, 0x00, 0xab, 0xbc, 0x35, 0xcc, 0xd4, 0xbe, 0x04, 0xe3, 0xf3, 0x3b,
  0x7a, 0x57, 0x2a, 0x3f, 0x1b, 0xcd, 0x9c, 0x3d, 0xa5, 0xb0, 0xd1, 0xbd,
  0x31, 0x17, 0xb7, 0xbe, 0x37, 0x03, 0x9e, 0xbe, 0xb6, 0x39, 0x5a, 0x3e,
  0x04, 0xa2, 0xa0, 0x3e, 0xb7, 0x6d, 0xe1, 0xbe, 0x34, 0x41, 0x2a, 0xbe,
  0x7d, 0x0d, 0xd8, 0x3e, 0xbf, 0x18, 0xbb, 0x3e, 0xb8, 0x67, 0x22, 0xbe,
  0xba, 0x6e, 0x91, 0xbe, 0x00, 0x0f, 0x8e, 0x3d, 0x7d, 0x2c, 0x91, 0x3e,
  0x9a, 0x4d, 0x0c, 0xbe, 0xa5, 0xe9, 0xc4, 0xbe, 0xf5, 0x2d, 0xe1, 0x3e,
  0x22, 0xce, 0xae, 0xbd, 0x03, 0xa9, 0xd0, 0xbe, 0x0c, 0xa1, 0x1b, 0xbe,
  0x7b, 0xab, 0xf8, 0xbc, 0x6a, 0x3e, 0x27, 0x3f, 0x6b, 0x19, 0x48, 0xbe,
  0x7b, 0x4c, 0x32, 0x3f, 0xde, 0xa2, 0xda, 0xbe, 0xe3, 0x3c, 0xbb, 0x3e,
  0x94, 0x31, 0x10, 0xbe, 0x10, 0xbe, 0x63, 0xbd, 0xd8, 0x5e, 0x77, 0x3f,
  0xe2, 0x8b, 0xe5, 0x3e, 0x2e, 0x76, 0x82, 0x3e, 0x08, 0x8c, 0x83, 0xbd,
  0x60, 0xa4, 0xac, 0x3e, 0x4f, 0x86, 0x20, 0xbf, 0xcb, 0x3b, 0xde, 0xbd,
  0x9c, 0xb3, 0x36, 0xbd, 0xcb, 0x58, 0x70, 0x3f, 0x28, 0x33, 0x8a, 0x3e,
  0x6f, 0x3b, 0xec, 0xbe, 0x2b, 0x67, 0x7c, 0xbe, 0x6a, 0xe7, 0xd0, 0xbe,
  0xa2, 0x60, 0x1a, 0x3e, 0x9d, 0xc5, 0x1d, 0xbf, 0xad, 0x60, 0x06, 0x3f,
  0xde, 0x96, 0x64, 0xbe, 0xe2, 0x94, 0x8c, 0xbe, 0xfc, 0xe4, 0xc0, 0xbe,
  0xcb, 0x9d, 0x1c, 0xbf, 0x78, 0x72, 0xb5, 0xbd, 0xd5, 0xd8, 0xf7, 0x3e,
  0x1a, 0x42, 0xee, 0x3e, 0x78, 0x02, 0x47, 0xbe, 0x12, 0xde, 0xb0, 0x3e,
  0x82, 0xea, 0x82, 0xbd, 0xcb, 0xf0, 0xc4, 0x3e, 0x67, 0x05, 0x02, 0x3e,
  0x11, 0x54, 0xe5, 0x3e, 0x7a, 0xdb, 0x5e, 0xbf, 0xc0, 0xdd, 0x33, 0xbe,
  0x7a, 0xf1, 0x0b, 0x3e, 0x40, 0x9f, 0x90, 0xbe, 0x23, 0x89, 0x44, 0xbe,
  0x1a, 0x53, 0x41, 0xbe, 0x87, 0xc9, 0x23, 0xbe, 0x28, 0xc5, 0x1a, 0xbd,
  0xfb, 0x49, 0xcf, 0xbe, 0x97, 0x3b, 0x68, 0x3f, 0x6e, 0x1a, 0xba, 0xbe,
  0x11, 0x3f, 0xe7, 0x3c, 0xed, 0x23, 0x5b, 0xbe, 0x11, 0x54, 0xdb, 0xbe,
  0xff, 0xe3, 0x57, 0x3f, 0xaa, 0x6c, 0x69, 0xbe, 0xdc, 0x33, 0xd0, 0x3e,
  0x14, 0xc3, 0x83, 0xbe, 0xd3, 0x27, 0x44, 0xbe, 0xe6, 0x53, 0x1c, 0x3f,
  0x04, 0x94, 0x8a, 0xbd, 0x5a, 0xc5, 0x1a, 0x3f, 0x9a, 0x0c, 0xba, 0xbe,
  0xff, 0x2e, 0xcb, 0xbe, 0x3e, 0x7d, 0xa1, 0xbe, 0x43, 0x88, 0x86, 0x3e,
  0x7a, 0xaf, 0x06, 0xbe, 0xe6, 0xe8, 0x08, 0xbd, 0x23, 0x96, 0xcd, 0x3e,
  0x40, 0x4b, 0x89, 0xbe, 0xf0, 0xa5, 0x8f, 0x3d, 0x2e, 0x4e, 0xa1, 0x3e,
  0x85, 0x29, 0xc2, 0x3e, 0xc5, 0x39, 0xad, 0xbd, 0xe3, 0xfd, 0x55, 0x3d,
  0x11, 0xbb, 0xb1, 0xbe, 0x67, 0x6c, 0x86, 0xbe, 0x0f, 0x1f, 0xaf, 0xbe,
  0xfc, 0x18, 0xa5, 0x3e, 0xbb, 0x97, 0x1f, 0x3d, 0x0b, 0x37, 0x91, 0xbe,
  0xc2, 0x09, 0x14, 0x3e, 0xb1, 0x94, 0x07, 0xbb, 0xbb, 0xe5, 0xe8, 0x3e,
  0x8d, 0xcd, 0x3b, 0xbd, 0x5a, 0x73, 0x34, 0x3e, 0xcc, 0xd5, 0x43, 0xbe,
  0xc0, 0x1e, 0xc9, 0xbd, 0x8e, 0xb2, 0x65, 0xbd, 0xf9, 0x72, 0x6b, 0xbd,
  0x68, 0x4a, 0x91, 0x3e, 0x2c, 0x50, 0x65, 0xbd, 0x63, 0xf7, 0xa0, 0xbe,
  0x0a, 0x1e, 0x80, 0xbe, 0xd9, 0xf2, 0xce, 0xbd, 0xf1, 0xb3, 0x60, 0xbe,
  0x3c, 0xb1, 0x9f, 0x3d, 0xa4, 0x62, 0x87, 0xbd, 0xc6, 0xd2, 0x2f, 0xbe,
  0x80, 0xc8, 0xcc, 0x3e, 0xb6, 0x72, 0x62, 0xbe, 0x7e, 0xde, 0xa3, 0xbe,
  0xe0, 0xa4, 0xa6, 0xbe, 0xf1, 0x1d, 0x70, 0xbe, 0xec, 0xd3, 0xf6, 0x3c,
  0x14, 0xf7, 0xee, 0x3e, 0x8f, 0x4e, 0xfa, 0xbd, 0x96, 0xe0, 0xb2, 0xbe,
  0xf2, 0x80, 0x5f, 0x3e, 0x53, 0x00, 0x30, 0xbe, 0xfb, 0x5b, 0xba, 0xbe,
  0x08, 0xd9, 0xf6, 0xbd, 0xf3, 0xcc, 0xbb, 0x3d, 0x3f, 0xaa, 0xce, 0x3e,
  0x98, 0xb4, 0xff, 0xbd, 0xd7, 0xd6, 0xbb, 0xbe, 0x38, 0x13, 0x41, 0xbe,
  0x87, 0x92, 0x4a, 0xbe, 0xc2, 0x0f, 0xab, 0x3d, 0x37, 0x85, 0x37, 0x3e,
  0xb4, 0x52, 0x25, 0x3d, 0x83, 0xf1, 0x08, 0xbe, 0xf2, 0x2f, 0x4e, 0x3d,
  0xa1, 0x3b, 0x5d, 0xbe, 0xce, 0xe5, 0x83, 0xbe, 0x82, 0x05, 0x63, 0xbe,
  0x1b, 0xb3, 0x5f, 0x3e, 0x2f, 0xe1, 0x37, 0x3e, 0xb2, 0x8a, 0x2a, 0xbe,
  0x43, 0x66, 0x19, 0xbe, 0x8e, 0x27, 0x9e, 0x3d, 0xa9, 0xe6, 0x6d, 0xbd,
  0x83, 0x2b, 0xa1, 0xbe, 0xde, 0x05, 0x76, 0xbe, 0xa2, 0x9c, 0x8a, 0x3d,
  0xb1, 0x15, 0x2e, 0xbe, 0xe2, 0x64, 0x8c, 0xba, 0xfd, 0xb4, 0x26, 0x3e,
  0xfd, 0x20, 0x71, 0x3e, 0x34, 0x44, 0x27, 0x3f, 0xe2, 0x4f, 0xd2, 0x3d,
  0xd6, 0xd0, 0x4f, 0x3e, 0x96, 0xba, 0x36, 0x3f, 0xb6, 0x7a, 0x8f, 0xbe,
  0xc1, 0xa1, 0x9c, 0xbe, 0x76, 0x72, 0x73, 0xbe, 0x6b, 0x27, 0x88, 0xbd,
  0x0e, 0x40, 0xb4, 0xbe, 0x21, 0x03, 0x8b, 0x3e, 0x10, 0x45, 0x2e, 0x3f,
  0x8b, 0x26, 0x8a, 0xbe, 0x38, 0xc7, 0x94, 0xbe, 0x38, 0xbc, 0x2d, 0xbe,
  0x38, 0x51, 0xff, 0x3e, 0x6d, 0xf9, 0xbd, 0xbe, 0x05, 0x48, 0x87, 0xbe,
  0x4b, 0xf5, 0x89, 0xbe, 0xd4, 0x38, 0x9a, 0xbe, 0xa0, 0x29, 0x4c, 0x3d,
  0x03, 0x0f, 0xb3, 0xbe, 0xd6, 0x47, 0x7d, 0xbe, 0x6e, 0xa4, 0x88, 0xbd,
  0x21, 0xcc, 0xdd, 0x3e, 0xe6, 0xdd, 0x5e, 0x3d, 0x20, 0x32, 0xda, 0x3d,
  0x35, 0xab, 0x01, 0xbd, 0xdd, 0xf7, 0x56, 0xbe, 0x91, 0x8a, 0x86, 0x3e,
  0xa1, 0x02, 0xbf, 0x3e, 0xa5, 0x98, 0x7c, 0xbe, 0x36, 0xce, 0x7c, 0x3d,
  0x1e, 0x29, 0xdb, 0xbc, 0x87, 0x43, 0x53, 0xbe, 0xee, 0x9a, 0x3d, 0x3f,
  0xf7, 0x74, 0xcf, 0x3d, 0xe4, 0x81, 0x00, 0x3f, 0x14, 0xad, 0x8a, 0xbe,
  0x2a, 0x90, 0x4b, 0x3e, 0x86, 0x20, 0xc0, 0xbe, 0x92, 0xd7, 0xe7, 0xbe,
  0xfc, 0x9a, 0x8b, 0xbe, 0xba, 0x4b, 0xc9, 0x3b, 0xa1, 0x96, 0xcf, 0xbd,
  0xbe, 0x2e, 0x92, 0xbe, 0xd6, 0xb2, 0x59, 0xbe, 0x30, 0xb6, 0xad, 0x3e,
  0xba, 0xc5, 0x76, 0xbe, 0x11, 0x76, 0xe9, 0xbe, 0xb4, 0x3d, 0xe2, 0xbb,
  0x9e, 0xe8, 0x92, 0xbe, 0x68, 0xd1, 0xca, 0xbe, 0xe7, 0x7f, 0x52, 0xbe,
  0x69, 0xed, 0x3d, 0x3e, 0xfa, 0x0a, 0x55, 0xbe, 0x0f, 0x3a, 0xae, 0x3e,
  0xd6, 0xa7, 0xc7, 0x3e, 0x48, 0x38, 0xb9, 0x3d, 0xeb, 0xa8, 0x8a, 0x3d,
  0x48, 0x73, 0x71, 0xbe, 0x43, 0xff, 0xb1, 0xbc, 0x9e, 0xb4, 0x0b, 0xbe,
  0x44, 0x42, 0x6f, 0x3d, 0x71, 0xdc, 0x46, 0xbd, 0xb7, 0xeb, 0x5b, 0xbe,
  0xd3, 0x31, 0x2f, 0x3e, 0x59, 0x71, 0x96, 0x3e, 0x64, 0x72, 0xc4, 0xbe,
  0x13, 0x1a, 0x58, 0xbe, 0xf4, 0xa7, 0xb6, 0xbd, 0x0a, 0x2d, 0x28, 0xbe,
  0x08, 0x73, 0xa2, 0xbe, 0x58, 0x2a, 0x9a, 0xbe, 0xda, 0x43, 0xaa, 0xbe,
  0xc2, 0xe4, 0xe2, 0xbc, 0xb8, 0x7e, 0xe6, 0xbc, 0x0a, 0xd9, 0x82, 0xbe,
  0x3c, 0x01, 0x14, 0x3f, 0xc7, 0x85, 0x3c, 0x3f, 0x09, 0x9a, 0x62, 0xbd,
  0x54, 0x49, 0x96, 0x3e, 0xa9, 0x7d, 0xba, 0x3e, 0x76, 0x59, 0xa5, 0x3e,
  0x89, 0x61, 0xb4, 0xbe, 0x2d, 0x18, 0xa7, 0xba, 0x5a, 0x7f, 0x21, 0xbe,
  0xaa, 0x0f, 0xfc, 0xbd, 0xd4, 0x04, 0x83, 0xbe, 0x39, 0x96, 0x2a, 0xbd,
  0xd8, 0x36, 0x18, 0xbe, 0x90, 0xc7, 0xaa, 0x3d, 0x85, 0x29, 0xf8, 0x3c,
  0xdb, 0xc5, 0x36, 0x3c, 0x13, 0x55, 0x22, 0x3e, 0x76, 0x3a, 0x30, 0x3f,
  0x45, 0x00, 0xa8, 0xbe, 0x6a, 0x9c, 0x72, 0xbd, 0x29, 0x8a, 0xad, 0xbd,
  0xd9, 0x0d, 0x13, 0x3e, 0xb9, 0x62, 0xba, 0xbd, 0x9a, 0x6a, 0x9c, 0x3d,
  0x51, 0xa7, 0xf7, 0x3d, 0xe4, 0xc9, 0x4b, 0xbe, 0x74, 0x75, 0xb6, 0xbe,
  0xcd, 0x76, 0x9d, 0xbe, 0x1d, 0x4e, 0xb3, 0xbe, 0x2f, 0x8c, 0x79, 0xbe,
  0x5e, 0x61, 0xb1, 0x3e, 0x05, 0xde, 0xec, 0x3d, 0x11, 0x46, 0xb5, 0xbe,
  0xc8, 0x20, 0xaf, 0xbe, 0x16, 0x8f, 0x2c, 0x3d, 0x6b, 0x3f, 0x7b, 0xbe,
  0x53, 0x69, 0x8b, 0xbe, 0x78, 0xef, 0x0c, 0xbe, 0x2f, 0xfc, 0x41, 0xbd,
  0x62, 0xd1, 0x0d, 0xbe, 0xda, 0xc6, 0xe2, 0xbd, 0x2b, 0xc5, 0x28, 0xbd,
  0x68, 0x8b, 0xce, 0x3d, 0x54, 0x9f, 0xfe, 0xbc, 0x77, 0x4d, 0x92, 0x3d,
  0xee, 0x02, 0x9c, 0xbd, 0xa8, 0x90, 0x62, 0x3e, 0x2e, 0x49, 0xd2, 0xba,
  0xd1, 0x36, 0xbf, 0xbe, 0x53, 0x92, 0x2a, 0x3d, 0xa0, 0x78, 0x99, 0xbd,
  0x76, 0xce, 0xd8, 0x3e, 0x0c, 0x81, 0x1d, 0x3d, 0x1a, 0xad, 0x89, 0xbe,
  0xb5, 0x35, 0xc4, 0xbc, 0x34, 0x7e, 0x82, 0xbe, 0xa4, 0x2b, 0x5c, 0xbd,
  0x70, 0xe3, 0xcb, 0xbd, 0x32, 0x53, 0x81, 0xbe, 0x9b, 0xe5, 0x65, 0xbd,
  0x1e, 0x38, 0xc1, 0x3d, 0xde, 0x2b, 0x6c, 0x3e, 0x65, 0x6b, 0x56, 0xbe,
  0xdd, 0x00, 0xdf, 0x3c, 0xa5, 0x91, 0x9b, 0xbe, 0xde, 0x62, 0x72, 0x3e,
  0xb3, 0x8e, 0xd7, 0xbd, 0x22, 0x7e, 0x68, 0xbe, 0x61, 0x39, 0x28, 0x3b,
  0xb9, 0x77, 0xad, 0x3e, 0x87, 0xd7, 0xb0, 0xbe, 0x6d, 0xc6, 0x9e, 0x3d,
  0x2d, 0x96, 0x0a, 0x3e, 0xcd, 0xc4, 0x13, 0x3d, 0x38, 0x14, 0x6f, 0xbe,
  0xc7, 0x86, 0xb6, 0x3e, 0x95, 0x2a, 0x03, 0xbe, 0x3d, 0xb0, 0x2f, 0x3c,
  0x8c, 0x88, 0xaa, 0xbe, 0x45, 0xfc, 0x93, 0x3e, 0xa4, 0x22, 0xfb, 0xbd,
  0x9a, 0xaf, 0xb0, 0x3e, 0x46, 0xcd, 0xff, 0xff, 0x30, 0x00, 0x00, 0x00,
  0x05, 0x00, 0x00, 0x00, 0x08, 0x00, 0x00, 0x00, 0x30, 0x00, 0x00, 0x00,
  0x19, 0x00, 0x00, 0x00, 0x73, 0x65, 0x71, 0x75, 0x65, 0x6e, 0x74, 0x69,
  0x61, 0x6c, 0x2f, 0x64, 0x65, 0x6e, 0x73, 0x65, 0x5f, 0x31, 0x2f, 0x4d,
  0x61, 0x74, 0x4d, 0x75, 0x6c, 0x00, 0x00, 0x00, 0x02, 0x00, 0x00, 0x00,
  0x0b, 0x00, 0x00, 0x00, 0x30, 0x00, 0x00, 0x00, 0xcc, 0xcc, 0xff, 0xff,
  0x5e, 0xce, 0xff, 0xff, 0x04, 0x00, 0x00, 0x00, 0xc0, 0x30, 0x00, 0x00,
  0xa5, 0xc0, 0x39, 0x3c, 0x90, 0x41, 0x3a, 0xbe, 0x51, 0xe2, 0x14, 0x3e,
  0xf3, 0x17, 0x22, 0xbe, 0xbe, 0xad, 0x01, 0x3e, 0xbb, 0x52, 0x84, 0xbc,
  0x98, 0xb5, 0xad, 0x3b, 0xfb, 0x85, 0x82, 0xbd, 0xd5, 0xd4, 0x64, 0xbe,
  0x0a, 0xf3, 0x19, 0x3c, 0x39, 0x7d, 0xc7, 0xbc, 0x7f, 0xb3, 0xcb, 0x3d,
  0x3c, 0xaa, 0xff, 0xbd, 0xb2, 0x6e, 0x21, 0x3e, 0x91, 0xd6, 0x4b, 0x3d,
  0x57, 0x6c, 0x78, 0x3d, 0x81, 0x02, 0x43, 0x3e, 0xf4, 0x41, 0xed, 0xbc,
  0xf8, 0xa2, 0x4a, 0x3e, 0x78, 0x48, 0xd1, 0x3d, 0x63, 0x9c, 0x4e, 0x3e,
  0x5d, 0x07, 0x75, 0xbe, 0x74, 0xe1, 0xbb, 0xbc, 0xb0, 0x07, 0x5d, 0x3e,
  0xa7, 0x1e, 0xd3, 0x3d, 0x90, 0x33, 0x7e, 0x3d, 0xdc, 0x61, 0x26, 0xbe,
  0x2d, 0x3e, 0xa8, 0x3d, 0xeb, 0xa7, 0x19, 0xb9, 0x37, 0x73, 0x6d, 0xbc,
  0x11, 0xef, 0xf4, 0xbd, 0xf2, 0x8a, 0x11, 0xbe, 0x6b, 0xc8, 0x8a, 0xbd,
  0x43, 0xee, 0x80, 0x3c, 0xa8, 0xe0, 0xfe, 0xbd, 0xc1, 0xc8, 0x1d, 0xbe,
  0x4d, 0xda, 0xe0, 0x3d, 0x68, 0x44, 0x1b, 0x3e, 0x8a, 0xcb, 0x4a, 0x3e,
  0xb7, 0x4e, 0xc1, 0xbc, 0x5c, 0xeb, 0x1a, 0x3d, 0x24, 0x46, 0xff, 0xbd,
  0x50, 0x20, 0xa2, 0x3c, 0xdd, 0xb0, 0xdc, 0xbc, 0xab, 0xd8, 0x01, 0x3e,
  0x10, 0xe1, 0x94, 0xbb, 0x4c, 0x9f, 0x15, 0x3e, 0xb1, 0xdb, 0x9f, 0x3d,
  0xc8, 0x4c, 0x6e, 0x3e, 0xec, 0x6a, 0x30, 0x3d, 0xc4, 0xc6, 0x64, 0x3e,
  0xe2, 0xfa, 0x8a, 0xbb, 0x82, 0xaa, 0x18, 0x3e, 0xbf, 0x12, 0x36, 0xbd,
  0xc9, 0x00, 0x66, 0x3c, 0xee, 0xce, 0x1c, 0x3e, 0x7f, 0x4b, 0x96, 0x3e,
  0xf2, 0x4d, 0xb0, 0xbd, 0x02, 0x75, 0x64, 0x3e, 0x75, 0x51, 0xb2, 0x3d,
  0x36, 0x1d, 0xc6, 0x3e, 0x0c, 0x96, 0x9b, 0xbc, 0x75, 0xc3, 0x7a, 0x3c,
  0x34, 0xae, 0x47, 0x3e, 0x8a, 0xa7, 0x1e, 0x3e, 0x82, 0xfa, 0x8f, 0x3d,
  0x21, 0xcb, 0x96, 0xbe, 0x81, 0x7b, 0x9c, 0xbc, 0x25, 0x75, 0xe9, 0xbd,
  0x4e, 0x48, 0x69, 0x3e, 0x80, 0x42, 0x2a, 0x3e, 0xab, 0x53, 0xd8, 0x3d,
  0xef, 0x5d, 0x9d, 0x3e, 0x0e, 0x5d, 0x36, 0xbe, 0xb7, 0x4a, 0xc5, 0x3c,
  0x8d, 0x72, 0x69, 0x3e, 0x47, 0x9e, 0x1c, 0xbe, 0x57, 0x0c, 0xb7, 0x3b,
  0x40, 0xb7, 0x39, 0xbe, 0x7d, 0xf0, 0xe6, 0x3d, 0x21, 0xb2, 0xa2, 0x3e,
  0xad, 0xb3, 0x2e, 0xbd, 0xfb, 0xf7, 0x2b, 0xbe, 0x29, 0xe0, 0x9a, 0xbc,
  0x4f, 0x88, 0xcd, 0x3e, 0x48, 0xe9, 0x86, 0x3e, 0x46, 0x89, 0xab, 0x3d,
  0x98, 0x90, 0x7a, 0x3d, 0xf2, 0xa0, 0x91, 0xbb, 0x52, 0x51, 0x15, 0x3d,
  0xed, 0x2a, 0x5f, 0x3e, 0xb6, 0x68, 0x6d, 0x3d, 0xcc, 0xa3, 0x0f, 0x3e,
  0x61, 0xac, 0xa1, 0x3e, 0xf5, 0x08, 0x89, 0x3e, 0xd2, 0xe7, 0x3d, 0x3e,
  0x35, 0xfc, 0x16, 0x3a, 0x4a, 0xee, 0x22, 0xbe, 0xa4, 0xa1, 0xf1, 0xbd,
  0x33, 0x18, 0xfc, 0xbd, 0xc4, 0x78, 0xaf, 0xbe, 0x81, 0xe6, 0x81, 0xbe,
  0x8f, 0x52, 0x4b, 0xbe, 0xba, 0xc4, 0x0b, 0xbe, 0x62, 0x3f, 0x70, 0x3b,
  0x92, 0x0d, 0x20, 0x3f, 0xd1, 0x2d, 0x0e, 0x3e, 0x38, 0x48, 0xab, 0xbc,
  0xa8, 0x6f, 0x32, 0xbe, 0xbc, 0xe7, 0xa5, 0xbd, 0xee, 0x0e, 0xde, 0xbe,
  0x6e, 0x32, 0x3f, 0xbc, 0xb8, 0x67, 0xaf, 0xbe, 0x9b, 0xe7, 0x19, 0xbe,
  0x6b, 0xc5, 0x1c, 0x3e, 0x91, 0xd6, 0x3b, 0x3e, 0x6f, 0x09, 0x17, 0x3e,
  0x9e, 0x48, 0x13, 0x3e, 0xe4, 0xbd, 0x9f, 0x3e, 0xcd, 0xb6, 0x76, 0xbe,
  0xed, 0xc8, 0xda, 0x3e, 0x24, 0x93, 0xa3, 0xbc, 0x8b, 0xba, 0x87, 0x3e,
  0x17, 0xf9, 0xa1, 0x3e, 0x06, 0xa1, 0x8d, 0xbe, 0xca, 0x59, 0x9c, 0xbd,
  0x60, 0xbb, 0x13, 0xbe, 0xac, 0x0f, 0x27, 0xbe, 0xcc, 0xdd, 0x27, 0xbe,
  0x0d, 0xae, 0xe3, 0x3d, 0x11, 0x6c, 0x7c, 0xbe, 0xfa, 0x24, 0x8c, 0x3c,
  0xfd, 0x4e, 0x11, 0xbe, 0x03, 0x80, 0x08, 0xbe, 0x9f, 0xab, 0x89, 0x3e,
  0x79, 0xd0, 0x02, 0xbe, 0x6d, 0xbc, 0x63, 0x3d, 0xa3, 0x47, 0xdc, 0x3e,
  0x60, 0x11, 0x0c, 0x3f, 0x5c, 0x17, 0x01, 0x3d, 0xce, 0xe7, 0x43, 0x3e,
  0xa7, 0xab, 0xaa, 0x3e, 0x73, 0xf1, 0xbb, 0xbd, 0x55, 0xa9, 0x33, 0x3e,
  0xba, 0x4b, 0xb3, 0x3e, 0xc4, 0x31, 0xec, 0x3d, 0x25, 0xe5, 0x1f, 0x3e,
  0x32, 0x29, 0x94, 0x3e, 0xe3, 0x8d, 0xa7, 0x3e, 0x7d, 0x95, 0x70, 0x3e,
  0xff, 0x1f, 0x17, 0x3e, 0x29, 0x90, 0x79, 0x3d, 0x8d, 0x59, 0x31, 0xbe,
  0x97, 0xb2, 0x2d, 0x3e, 0x34, 0x8a, 0x05, 0x3d, 0x48, 0x99, 0x8c, 0x3e,
  0x07, 0xf9, 0x5f, 0xbe, 0x80, 0xc3, 0x86, 0x3e, 0xca, 0x57, 0x3d, 0x3e,
  0xe9, 0xf9, 0x0a, 0xbd, 0x98, 0x7e, 0x8d, 0x3e, 0x8c, 0x42, 0xad, 0x3d,
  0x31, 0x7c, 0xca, 0xbd, 0xbe, 0x6d, 0x0a, 0x3e, 0xa8, 0x06, 0x7a, 0x3d,
  0xe2, 0x46, 0xae, 0xbe, 0x3c, 0x53, 0x3c, 0xbe, 0x1a, 0xff, 0x05, 0xbe,
  0x37, 0x4c, 0x62, 0xbd, 0x27, 0x60, 0x7b, 0xbc, 0x4c, 0x91, 0x02, 0x3e,
  0x5b, 0x19, 0x4f, 0xbe, 0xfb, 0x5c, 0x34, 0x3e, 0xc6, 0x00, 0x23, 0x3e,
  0x81, 0x7d, 0xe2, 0x3d, 0x3a, 0x87, 0x37, 0xbe, 0x76, 0xf4, 0x2a, 0xbe,
  0xfb, 0x47, 0x10, 0xbe, 0xbc, 0x8c, 0xcd, 0xbd, 0x3e, 0xf5, 0x44, 0xbe,
  0xed, 0x1f, 0x93, 0xbe, 0x66, 0x22, 0xb0, 0x3d, 0x5d, 0xe7, 0x02, 0x3e,
  0xc2, 0xbf, 0xb0, 0xbd, 0xea, 0x0f, 0x2a, 0x3e, 0xa2, 0x43, 0x70, 0x3e,
  0x3b, 0xe6, 0x64, 0xbd, 0x88, 0xd0, 0xc3, 0x3e, 0xd1, 0xe0, 0x44, 0x3e,
  0x7f, 0x1a, 0x6c, 0xbe, 0xaa, 0x84, 0x35, 0xbe, 0xb5, 0x67, 0x05, 0xbe,
  0xc8, 0x33, 0xca, 0xbc, 0x6e, 0xe1, 0x0a, 0x3f, 0xa9, 0xb7, 0xe9, 0x3e,
  0xa8, 0xb5, 0x25, 0xbe, 0xc5, 0xc5, 0xad, 0x3c, 0x4b, 0x0b, 0x23, 0xbd,
  0xea, 0x8b, 0x10, 0x3d, 0x35, 0x55, 0x7d, 0x3e, 0x07, 0x3b, 0xb6, 0xbd,
  0xf5, 0x46, 0x5a, 0x3e, 0x55, 0x35, 0xb7, 0xbd, 0x11, 0x05, 0x9c, 0xbc,
  0xb4, 0x7c, 0xbd, 0xbd, 0x00, 0x7e, 0x4a, 0x3e, 0xe7, 0x97, 0xaa, 0xbd,
  0x46, 0x27, 0x06, 0xbe, 0xb5, 0xaa, 0x5a, 0x3e, 0x66, 0x37, 0x4e, 0x3e,
  0xd9, 0x86, 0x00, 0x3e, 0x00, 0x68, 0x6e, 0x3d, 0x72, 0xf7, 0x95, 0x3d,
  0x8a, 0x46, 0x00, 0x3e, 0x7e, 0xdc, 0x24, 0x3e, 0xee, 0x3b, 0xa1, 0x3e,
  0x58, 0xaf, 0x8e, 0x3d, 0x3a, 0xb9, 0x3c, 0x3e, 0x79, 0xf0, 0xae, 0xbd,
  0x50, 0x03, 0xb8, 0x3d, 0x71, 0x0b, 0x67, 0x3e, 0x9f, 0x5a, 0xb0, 0x3e,
  0x4d, 0x6c, 0xdd, 0xbd, 0x93, 0x58, 0x69, 0x3e, 0x29, 0x8a, 0xb4, 0x3e,
  0x2b, 0x0f, 0x04, 0x3e, 0x1a, 0xf0, 0xd2, 0xbd, 0x0d, 0xf9, 0x31, 0x3e,
  0x32, 0xb4, 0x8b, 0x3e, 0x03, 0xd9, 0x21, 0x3e, 0xa0, 0xe3, 0x9c, 0xbd,
  0xb2, 0x2e, 0x88, 0x3e, 0x9f, 0x66, 0x18, 0xbe, 0xe2, 0x88, 0xfd, 0x3d,
  0x3d, 0xb2, 0x18, 0x3d, 0xb0, 0x3b, 0x93, 0x3e, 0x5c, 0x72, 0x26, 0xbe,
  0x7c, 0xb9, 0x54, 0xbe, 0x3e, 0x75, 0x56, 0xbe, 0xd1, 0x1f, 0x24, 0xbe,
  0x0b, 0x03, 0x4c, 0xbd, 0x36, 0x0e, 0xe1, 0xbd, 0xa0, 0xd6, 0x6c, 0xbd,
  0xc5, 0x22, 0x0f, 0x3e, 0xcb, 0x87, 0x02, 0xbe, 0x29, 0xf3, 0x40, 0x3e,
  0xa2, 0x99, 0xa8, 0x3d, 0x79, 0x02, 0x10, 0xbe, 0x05, 0xd6, 0x3b, 0xbd,
  0x18, 0x99, 0x77, 0x3d, 0xa8, 0x0d, 0x04, 0xbe, 0xb0, 0x06, 0xdd, 0x3d,
  0xf8, 0x46, 0x57, 0xbd, 0xfc, 0x7b, 0x9a, 0xbe, 0x4e, 0x8a, 0x29, 0xbe,
  0x03, 0xaa, 0xb6, 0xbd, 0x9b, 0x37, 0xe4, 0xbc, 0x29, 0xda, 0x25, 0xbe,
  0x99, 0xc5, 0x95, 0xbe, 0x95, 0x65, 0xc2, 0x3d, 0x74, 0xb1, 0xeb, 0xbd,
  0xca, 0x57, 0x78, 0xbe, 0x89, 0x20, 0xc4, 0x3d, 0x73, 0x7d, 0x29, 0x3e,
  0xad, 0xd1, 0xbf, 0xbe, 0x7e, 0xd4, 0x8e, 0x3d, 0xf7, 0xaf, 0xae, 0xbd,
  0xa7, 0xa9, 0xaa, 0x3e, 0xa1, 0x46, 0x0b, 0x3e, 0x97, 0x68, 0x1a, 0x3e,
  0x56, 0x45, 0xe3, 0xbe, 0xd2, 0x97, 0xfc, 0xbd, 0xc9, 0xce, 0x91, 0x3e,
  0x65, 0x9a, 0x2a, 0x3e, 0x7c, 0xe9, 0x20, 0x3e, 0xb7, 0xbc, 0x0b, 0x3d,
  0x68, 0xf9, 0xce, 0xbd, 0xcb, 0x35, 0x80, 0xbe, 0x4f, 0xe4, 0x5e, 0xbe,
  0xc1, 0xc1, 0x86, 0xbc, 0xcc, 0xd9, 0x59, 0xbe, 0xd7, 0x35, 0x8a, 0x3e,
  0x1f, 0x3d, 0x6a, 0x3e, 0x59, 0x12, 0x44, 0x3e, 0xf2, 0xd9, 0xba, 0xbe,
  0xd6, 0xf3, 0x80, 0xbe, 0x60, 0x0c, 0x50, 0xbe, 0x19, 0x92, 0x43, 0xbe,
  0xe3, 0x7e, 0x55, 0x3e, 0x45, 0xf0, 0x04, 0x3f, 0x91, 0xff, 0xba, 0xbd,
  0xf9, 0xc2, 0xc5, 0xbd, 0xa0, 0x29, 0xd7, 0xbe, 0x09, 0x5e, 0x4c, 0xba,
  0xbf, 0x26, 0xdc, 0xbe, 0xc8, 0xe7, 0x3d, 0xbe, 0xe9, 0x63, 0xf6, 0x3d,
  0xc8, 0x29, 0x03, 0x3f, 0x09, 0xe2, 0xcf, 0xbd, 0x72, 0x94, 0x7b, 0xbe,
  0x4d, 0x94, 0xa9, 0xbe, 0xb4, 0x15, 0x41, 0xbe, 0xd6, 0x73, 0x97, 0x3e,
  0x0d, 0xa5, 0x08, 0x3c, 0xd6, 0x3d, 0x9e, 0x3e, 0xd6, 0x1e, 0xd8, 0xbd,
  0x0c, 0xe6, 0x60, 0xbe, 0x9e, 0x6b, 0x05, 0x3e, 0xdb, 0x7d, 0xae, 0x3a,
  0x0b, 0xac, 0x20, 0xbe, 0x66, 0x33, 0x65, 0x3e, 0x78, 0xb9, 0x72, 0x3e,
  0x04, 0x80, 0x4b, 0x3e, 0xbd, 0x5a, 0x45, 0xbe, 0x63, 0xdd, 0x15, 0x3e,
  0x61, 0x33, 0x80, 0xbe, 0xb6, 0xb9, 0x37, 0xbd, 0x68, 0xd3, 0x4b, 0xbe,
  0x90, 0xc6, 0x29, 0xbe, 0x50, 0xd1, 0x4d, 0xbe, 0x49, 0x6e, 0x34, 0xbe,
  0x50, 0x38, 0xd2, 0x3c, 0x96, 0x14, 0x1e, 0x3e, 0x79, 0xeb, 0xce, 0x3d,
  0x66, 0x82, 0x5e, 0xbc, 0x98, 0xa1, 0x3b, 0xbe, 0xdd, 0x87, 0x13, 0x3d,
  0x84, 0xe2, 0x7e, 0x3d, 0x69, 0x0a, 0x38, 0xbe, 0xfa, 0xdd, 0xc2, 0xbd,
  0x53, 0x52, 0x9e, 0xbd, 0x9e, 0x3f, 0x97, 0xbb, 0x75, 0x4e, 0x1d, 0x3f,
  0x97, 0xed, 0x04, 0x3e, 0x6e, 0xf8, 0x31, 0xbe, 0xf3, 0x3e, 0x59, 0xbd,
  0xd6, 0x94, 0x1c, 0x3b, 0xd1, 0x16, 0x60, 0xbd, 0x97, 0xa4, 0x40, 0x3e,
  0x17, 0x13, 0x36, 0xbe, 0x03, 0x84, 0xb8, 0x3d, 0x57, 0xd5, 0x11, 0xbe,
  0xae, 0x81, 0x66, 0xbe, 0x4f, 0x1c, 0x4b, 0x3e, 0xde, 0x73, 0xed, 0xbb,
  0x5b, 0x1e, 0x63, 0xbe, 0x7c, 0x70, 0x83, 0x3d, 0x8e, 0x68, 0x18, 0xbc,
  0x14, 0xc0, 0xe9, 0x3d, 0xdb, 0x04, 0x14, 0x3d, 0x52, 0x95, 0xeb, 0xbd,
  0x4c, 0x99, 0x9b, 0x3d, 0x63, 0xda, 0x6f, 0xbd, 0xb7, 0x17, 0x5d, 0x3e,
  0x59, 0x4b, 0xd6, 0x3d, 0x72, 0xcd, 0x4f, 0x3d, 0x8f, 0x61, 0x71, 0xbe,
  0xc5, 0x4c, 0xf3, 0xbd, 0x66, 0x6b, 0xb3, 0xbb, 0xb9, 0x90, 0xae, 0x3b,
  0xfe, 0xd8, 0xe7, 0x3b, 0xf4, 0x27, 0x0e, 0xbd, 0x47, 0x70, 0x1e, 0x3e,
  0xd3, 0x2f, 0x70, 0x3e, 0xb1, 0x0d, 0xbf, 0xbe, 0xbd, 0x64, 0x9f, 0xbe,
  0x01, 0x5a, 0x66, 0x3d, 0x9f, 0x57, 0x1d, 0xbe, 0xb0, 0x6f, 0xa3, 0xbd,
  0xad, 0x9b, 0x7c, 0xbe, 0x4c, 0x2f, 0x61, 0xbe, 0xd6, 0x2b, 0xa0, 0x3d,
  0x67, 0x56, 0x4a, 0x3d, 0x31, 0xff, 0x38, 0x3d, 0x47, 0x7f, 0x6d, 0xbd,
  0x1c, 0x08, 0xde, 0x3c, 0x2d, 0xc0, 0x76, 0xbd, 0x78, 0xca, 0x01, 0x3e,
  0x39, 0x23, 0x85, 0xbd, 0x1b, 0xed, 0xd7, 0xbd, 0x27, 0x5c, 0xbe, 0x3e,
  0xb9, 0x03, 0x8e, 0xb9, 0xec, 0xc3, 0x1e, 0xbe, 0xa4, 0x00, 0x5b, 0x3e,
  0x92, 0xeb, 0xb5, 0xbd, 0xe1, 0x82, 0x16, 0xbe, 0x06, 0xbc, 0x82, 0xbe,
  0xc1, 0x61, 0x15, 0xbe, 0xe5, 0x43, 0x42, 0x3e, 0x3d, 0x6b, 0xf3, 0xbd,
  0x9a, 0xda, 0x1b, 0xbe, 0xf9, 0xe8, 0xd2, 0x3e, 0xbc, 0xcc, 0x59, 0x3e,
  0x5a, 0xe5, 0x6d, 0xbe, 0x4a, 0xe0, 0x91, 0xbd, 0x09, 0xc1, 0xc6, 0xbe,
  0x6d, 0x84, 0x16, 0xbe, 0x7d, 0xd5, 0x69, 0x3d, 0x85, 0x75, 0x56, 0xbd,
  0x71, 0x23, 0x94, 0x3c, 0xf1, 0x88, 0x39, 0xbd, 0x4a, 0x1a, 0x7c, 0x3e,
  0xca, 0xe2, 0x42, 0x3e, 0x29, 0xb9, 0x18, 0xbe, 0x2d, 0x3e, 0xb2, 0x3e,
  0x8f, 0x62, 0x43, 0x3e, 0xed, 0x1c, 0x14, 0x3e, 0x24, 0x6a, 0x7f, 0x3e,
  0x2b, 0x4b, 0xa5, 0xbd, 0x52, 0x95, 0x8f, 0x3d, 0x24, 0xd1, 0xe9, 0xbc,
  0x95, 0x1f, 0x80, 0xbe, 0xbd, 0xa0, 0x63, 0xbe, 0xed, 0x21, 0xc8, 0xbd,
  0xe7, 0xdd, 0xcf, 0xbc, 0x86, 0x0a, 0xd5, 0xbd, 0xca, 0xb0, 0x4a, 0xbe,
  0x83, 0x8d, 0x33, 0xbd, 0x68, 0x0a, 0x85, 0xbe, 0x9b, 0xd8, 0x57, 0x3d,
  0x62, 0xa4, 0xee, 0x3d, 0x25, 0xdd, 0x8d, 0x3e, 0xd5, 0x54, 0x76, 0xbd,
  0x25, 0xaa, 0x87, 0x3c, 0xd3, 0xa6, 0xb0, 0x3d, 0xb9, 0x14, 0xca, 0xbd,
  0x42, 0xcb, 0x3d, 0x3e, 0x4d, 0xa6, 0xcc, 0x3d, 0xfa, 0xc8, 0x65, 0x3e,
  0x1c, 0xd7, 0x1f, 0x3e, 0xd0, 0x62, 0xa5, 0x3c, 0xf6, 0xe9, 0x81, 0xbe,
  0x52, 0x04, 0x8c, 0x3e, 0x77, 0x17, 0xa9, 0xbc, 0xd6, 0xd1, 0x1f, 0x3e,
  0x80, 0x0f, 0x74, 0x3d, 0xd2, 0x3a, 0x34, 0x3e, 0x21, 0x63, 0xba, 0x3d,
  0x50, 0x7b, 0x13, 0x3e, 0x8f, 0x70, 0x7f, 0x3e, 0xf4, 0x2e, 0x90, 0x3e,
  0x7d, 0xbc, 0x45, 0xbe, 0xff, 0x4a, 0x68, 0x3e, 0xe2, 0xd2, 0x9e, 0x3e,
  0x5f, 0xcb, 0x6a, 0x3e, 0x10, 0x4e, 0xa3, 0xbe, 0x22, 0x3a, 0xd9, 0x3e,
  0x66, 0x83, 0x2b, 0x3d, 0xf5, 0xd0, 0xbb, 0xbd, 0x1f, 0xa0, 0x5a, 0x3e,
  0xc9, 0xa9, 0xfd, 0x3d, 0x3f, 0xc1, 0x38, 0xbe, 0x53, 0x51, 0x0f, 0xbe,
  0x95, 0xc0, 0xaa, 0xbd, 0x31, 0x98, 0x25, 0x3e, 0x92, 0x80, 0x4d, 0xbd,
  0x30, 0xb7, 0xb7, 0xbe, 0x1a, 0x1d, 0xdc, 0xbd, 0x5f, 0xa8, 0x5b, 0x3e,
  0x02, 0xb4, 0x34, 0x3e, 0x8b, 0x9f, 0x60, 0x3d, 0x5e, 0xaa, 0x5f, 0xbe,
  0xb7, 0xf0, 0xe5, 0xbd, 0x3c, 0xf3, 0xd0, 0xbd, 0xd9, 0x68, 0x08, 0xbe,
  0xc2, 0x0d, 0x91, 0xbe, 0x44, 0x0a, 0xd7, 0xbc, 0x9a, 0xbe, 0x7c, 0xbe,
  0x72, 0x06, 0x0d, 0x3d, 0xad, 0x92, 0xc6, 0x3d, 0x4c, 0xe4, 0x67, 0xbe,
  0x2e, 0x37, 0x42, 0xbe, 0x83, 0xb9, 0x62, 0xbe, 0x10, 0xf8, 0x0b, 0xbe,
  0xb5, 0x6a, 0x87, 0x3c, 0xe2, 0xaa, 0xab, 0xbc, 0x51, 0x27, 0xaa, 0xbd,
  0xaa, 0x92, 0x10, 0x3e, 0x69, 0x4e, 0x0f, 0xbe, 0x43, 0x7c, 0x6d, 0x3d,
  0x3f, 0x20, 0x4e, 0x3e, 0x4a, 0xc3, 0xe4, 0x3d, 0xfa, 0x6c, 0x36, 0x3e,
  0xbf, 0x82, 0x13, 0x3e, 0x82, 0x01, 0xfd, 0x3d, 0x51, 0x3e, 0x29, 0xbe,
  0x7e, 0x6b, 0x81, 0xbd, 0x5f, 0x04, 0x72, 0xbe, 0xaa, 0xc3, 0x37, 0xbc,
  0xe4, 0xed, 0x04, 0x3e, 0x24, 0xb6, 0xc1, 0xbd, 0x55, 0xa9, 0xa2, 0xbd,
  0x21, 0x48, 0x86, 0x3b, 0x77, 0x78, 0xf3, 0x3c, 0x9f, 0x2b, 0x4b, 0x3e,
  0x11, 0x98, 0x8b, 0xbd, 0x75, 0x63, 0xec, 0xbb, 0x49, 0x22, 0xd0, 0x3e,
  0x78, 0x37, 0x9c, 0x3b, 0xa4, 0x33, 0x2e, 0x3e, 0xdb, 0x1f, 0xbb, 0x3d,
  0x51, 0xc5, 0x5f, 0x3d, 0x11, 0x72, 0x3b, 0x3e, 0xaf, 0x00, 0xaf, 0x3e,
  0x94, 0x9c, 0x11, 0x3e, 0x5b, 0x52, 0x43, 0x3e, 0x47, 0x6c, 0xc0, 0xbd,
  0xc9, 0x94, 0x2b, 0x3d, 0x1b, 0xa3, 0xaa, 0xbe, 0x01, 0xfd, 0x4f, 0xbe,
  0xba, 0x91, 0x29, 0xbe, 0x81, 0x15, 0x62, 0x3e, 0x00, 0xe5, 0x62, 0x3e,
  0x64, 0x39, 0x8f, 0x3d, 0x94, 0xd1, 0x12, 0xbd, 0x53, 0x32, 0x8c, 0x3e,
  0x77, 0x57, 0x8d, 0x3e, 0x1f, 0x96, 0xac, 0xbd, 0x9e, 0x4e, 0x53, 0x3e,
  0xf3, 0xff, 0x38, 0x3d, 0xf5, 0x5c, 0x17, 0x3e, 0x62, 0x30, 0x22, 0xbc,
  0x5b, 0x1a, 0xa9, 0x3e, 0x35, 0xef, 0x4c, 0x3e, 0xfa, 0x26, 0x18, 0x3e,
  0x4f, 0x90, 0xb2, 0x3d, 0x13, 0x28, 0x94, 0xbd, 0xd5, 0x2a, 0x65, 0x3b,
  0x28, 0xd8, 0xc0, 0xbd, 0x06, 0x63, 0xaf, 0x3e, 0x4e, 0x5c, 0x99, 0xbd,
  0xfc, 0x8c, 0xa8, 0xbb, 0x91, 0x88, 0x6f, 0x3d, 0x9a, 0x4d, 0xa4, 0x3e,
  0xcf, 0x5f, 0xf5, 0x3c, 0x24, 0x41, 0x63, 0x3e, 0x50, 0x6c, 0xac, 0x3a,
  0x75, 0x7e, 0xe5, 0x3c, 0x9c, 0x2a, 0xc8, 0xbc, 0xd7, 0x82, 0x53, 0xbe,
  0xb6, 0xd4, 0xc6, 0x3d, 0xfa, 0x38, 0x40, 0xbe, 0x30, 0xff, 0x42, 0x3c,
  0x68, 0x50, 0x99, 0x3e, 0x13, 0x2a, 0x0d, 0xbe, 0x7f, 0x3d, 0xcf, 0xbd,
  0x59, 0x7a, 0xae, 0xbd, 0xd4, 0xab, 0x9d, 0x3e, 0xbc, 0x39, 0x90, 0x3c,
  0xf0, 0x55, 0x5d, 0x3d, 0x40, 0x35, 0x94, 0xbc, 0x23, 0xf2, 0x87, 0x3e,
  0x6e, 0x80, 0xac, 0x3d, 0x60, 0xbd, 0x7d, 0xbd, 0x21, 0xe8, 0x5c, 0x3d,
  0x48, 0x8a, 0x6a, 0x3e, 0xe1, 0x73, 0x99, 0x3e, 0xca, 0xc4, 0x8c, 0x3e,
  0x7d, 0x1c, 0xf4, 0xbc, 0x4b, 0x6c, 0x24, 0x3d, 0x29, 0x7b, 0x27, 0x3d,
  0x5d, 0xf7, 0x31, 0xbe, 0xee, 0x03, 0xb9, 0xbc, 0xed, 0xa2, 0x55, 0x3d,
  0x7c, 0x87, 0x75, 0xbc, 0xd8, 0x1d, 0x78, 0x3e, 0x50, 0xb8, 0xfe, 0x3d,
  0x2f, 0x23, 0xe1, 0x3d, 0xe4, 0xf5, 0xdd, 0xbb, 0x8b, 0x39, 0x5d, 0x3e,
  0xc8, 0xeb, 0x0f, 0xbe, 0x6f, 0x5c, 0xa1, 0x3e, 0xed, 0x58, 0xca, 0xbd,
  0x4c, 0x35, 0xbe, 0xbd, 0xd1, 0x91, 0xb7, 0xbd, 0xc7, 0x84, 0x78, 0x3e,
  0x06, 0xc9, 0x0d, 0x3e, 0xcb, 0x53, 0x0e, 0x3e, 0xc5, 0xe2, 0x29, 0xbe,
  0x08, 0x32, 0x38, 0x3e, 0x3f, 0x7b, 0xb7, 0x3c, 0x09, 0xcd, 0x6c, 0xbd,
  0x18, 0x7c, 0x29, 0xbe, 0x1f, 0x2f, 0xb2, 0x3d, 0x16, 0x54, 0xf5, 0xbc,
  0xd7, 0xed, 0xb4, 0xbd, 0x75, 0xd3, 0xa3, 0xbe, 0x30, 0x44, 0xe6, 0xbb,
  0x9b, 0xe0, 0x0b, 0xbe, 0x0a, 0x3d, 0x6f, 0xbb, 0xf6, 0x91, 0x28, 0x3e,
  0xd1, 0xd2, 0x7a, 0xbe, 0xf6, 0xa8, 0xb8, 0x3d, 0xd7, 0x7d, 0x82, 0xbe,
  0x8b, 0x38, 0x9f, 0xbe, 0xdb, 0x3c, 0x1d, 0x3e, 0x13, 0xab, 0x2e, 0x3e,
  0x1a, 0x13, 0xc8, 0xbd, 0x52, 0xe2, 0xeb, 0xbc, 0xa4, 0xdc, 0xe2, 0x3d,
  0xa1, 0x83, 0xdf, 0x3e, 0x32, 0x73, 0xed, 0xbd, 0x68, 0xe0, 0xa0, 0xbd,
  0xbc, 0xb0, 0xe8, 0xbe, 0x4b, 0xd4, 0xe4, 0x3d, 0xca, 0x0e, 0xfd, 0xbb,
  0xca, 0x5c, 0x68, 0xbe, 0x3f, 0x17, 0x93, 0xbe, 0x3b, 0xbf, 0x23, 0xbe,
  0xc8, 0x19, 0xae, 0x3c, 0x01, 0xf6, 0xd3, 0x3e, 0x03, 0x88, 0xc7, 0x3d,
  0x59, 0x38, 0x0f, 0x3e, 0xb4, 0x0d, 0x3b, 0xbe, 0x7c, 0xfe, 0x23, 0x3e,
  0xd2, 0x14, 0xd9, 0xbc, 0xec, 0x19, 0x98, 0xbc, 0x38, 0x00, 0x10, 0x3e,
  0x8c, 0x3e, 0xc4, 0xbc, 0xa2, 0x63, 0x41, 0xbe, 0x14, 0x68, 0x58, 0x3d,
  0x87, 0x02, 0x04, 0xbe, 0x3c, 0xee, 0x23, 0x3e, 0xc1, 0xf3, 0x40, 0xbe,
  0xf0, 0xc2, 0x00, 0xbe, 0xa8, 0x5b, 0xc2, 0x3d, 0x8e, 0xf5, 0xee, 0xbd,
  0x1c, 0xbe, 0xa7, 0x3d, 0xe2, 0xa5, 0x2d, 0x3d, 0xed, 0xba, 0x17, 0xbc,
  0x6e, 0x2e, 0x94, 0xbe, 0xff, 0x1b, 0x50, 0xbe, 0xbc, 0xbd, 0x8c, 0xbe,
  0x12, 0xef, 0xb7, 0xbe, 0xe0, 0x1d, 0x44, 0xbe, 0xd4, 0x21, 0xaf, 0xbd,
  0x0d, 0x35, 0x0e, 0x3e, 0x85, 0x1f, 0x5f, 0x3e, 0x51, 0xef, 0xcd, 0x3d,
  0x66, 0x6a, 0x50, 0xbe, 0x86, 0x69, 0xa6, 0xbd, 0x85, 0x91, 0x94, 0x3e,
  0x58, 0xc5, 0xa9, 0x3e, 0x3c, 0x36, 0xa7, 0xbd, 0xc3, 0x63, 0x84, 0x3d,
  0xb4, 0xb1, 0xda, 0xbd, 0x67, 0xb9, 0xad, 0x3c, 0x27, 0x84, 0x58, 0xbc,
  0xdc, 0xdc, 0x2b, 0xbd, 0x21, 0xdd, 0x07, 0x3e, 0xa8, 0xb1, 0x8a, 0x3d,
  0x05, 0xae, 0xbc, 0xbe, 0xe4, 0x70, 0x76, 0xbe, 0x00, 0x44, 0x91, 0x3a,
  0x8f, 0xbb, 0xa7, 0x3e, 0x8d, 0xac, 0xfb, 0x3c, 0xce, 0xd1, 0x87, 0x3e,
  0x46, 0xfb, 0xb1, 0xbc, 0x76, 0xa6, 0xaf, 0xbe, 0xa7, 0x37, 0x34, 0x3e,
  0x1c, 0xa7, 0x17, 0xbd, 0x9f, 0xb4, 0x45, 0xbe, 0x08, 0xa3, 0xa4, 0xbc,
  0x10, 0x0b, 0x08, 0x3e, 0xba, 0xee, 0x66, 0x3d, 0x80, 0x7a, 0x04, 0x3e,
  0x8b, 0xb8, 0xb0, 0x3d, 0x88, 0xbf, 0x5c, 0xbd, 0x72, 0x5a, 0x53, 0x3d,
  0x0a, 0x95, 0xd2, 0xbd, 0xfb, 0x8b, 0xa5, 0x3d, 0x5d, 0xae, 0xb3, 0xbd,
  0x3f, 0xf3, 0x4a, 0xbd, 0x10, 0xc6, 0x9a, 0xbd, 0x7f, 0x2e, 0x5c, 0xbe,
  0xeb, 0x9b, 0xf9, 0x3c, 0x84, 0xa7, 0xf1, 0x3d, 0x24, 0x4b, 0x51, 0x3e,
  0x2b, 0x67, 0xa6, 0x3c, 0xec, 0x26, 0xe2, 0x3d, 0xf7, 0xa0, 0x9c, 0xbd,
  0xd0, 0x40, 0x12, 0xbd, 0x4f, 0xf0, 0x17, 0x3e, 0x17, 0xd1, 0x56, 0x3d,
  0x12, 0xcf, 0x7d, 0xbd, 0x78, 0xca, 0x12, 0x3e, 0x2c, 0x84, 0x9f, 0x3c,
  0x76, 0xe6, 0xdb, 0xbb, 0xf0, 0xea, 0xdc, 0x3c, 0x2e, 0x85, 0xa2, 0x3c,
  0xd8, 0xb6, 0x91, 0x3e, 0xe1, 0xdd, 0x78, 0x3e, 0xda, 0xcb, 0x5f, 0x3e,
  0x14, 0xea, 0xb2, 0xbd, 0x01, 0xf8, 0x27, 0xbb, 0x2a, 0x38, 0x48, 0x3d,
  0x0b, 0x89, 0x42, 0x3d, 0xda, 0xe8, 0xad, 0x3d, 0x66, 0xf1, 0xb1, 0x3d,
  0xd0, 0x49, 0xa5, 0x3c, 0x16, 0x7b, 0x04, 0x3e, 0x0a, 0xfb, 0x24, 0x3e,
  0xfb, 0x46, 0x74, 0xbe, 0xdf, 0x3b, 0xfb, 0xbd, 0xef, 0x7b, 0x9d, 0xbd,
  0x10, 0x83, 0xcf, 0x3d, 0x3e, 0xcc, 0x28, 0x3e, 0xa4, 0x18, 0x5e, 0x3d,
  0x5c, 0x7b, 0x1d, 0x3d, 0x29, 0x6e, 0xc0, 0x3d, 0xf0, 0x38, 0x89, 0x3d,
  0x66, 0x3a, 0x55, 0x3e, 0xb5, 0xc8, 0x19, 0xbc, 0xa5, 0xb0, 0xf5, 0xbd,
  0x5b, 0x60, 0x57, 0xbe, 0xb6, 0x7a, 0x9d, 0x3d, 0xc1, 0xa3, 0xe4, 0xbd,
  0x59, 0x47, 0xfd, 0x3d, 0x97, 0x53, 0xfc, 0x3d, 0x7b, 0x55, 0x6e, 0x3c,
  0xe3, 0xf7, 0x87, 0x3e, 0x41, 0x0f, 0x38, 0xbe, 0x23, 0xde, 0xd7, 0x3d,
  0x77, 0xe2, 0xd8, 0x3c, 0x99, 0x42, 0x47, 0xbe, 0x9e, 0x99, 0x0d, 0x3e,
  0xa1, 0xa5, 0x29, 0xbe, 0xdc, 0x91, 0x12, 0xbe, 0x06, 0xf9, 0xb2, 0xbe,
  0x54, 0x0d, 0x00, 0x3e, 0x02, 0xd1, 0x20, 0xbe, 0x98, 0x57, 0xdb, 0xbd,
  0x7c, 0x74, 0x6a, 0xbe, 0x56, 0x98, 0xee, 0xbd, 0x07, 0xf7, 0x8b, 0x3d,
  0x86, 0xea, 0xf4, 0x3d, 0x5b, 0x7c, 0x11, 0x3d, 0x20, 0xc0, 0x23, 0xbe,
  0x91, 0x57, 0x10, 0x3e, 0x2c, 0xbc, 0x99, 0xbd, 0xc1, 0x14, 0x7b, 0xbe,
  0xd7, 0x32, 0x01, 0xbf, 0x68, 0xe9, 0x9a, 0xbd, 0x99, 0xe7, 0x01, 0x3e,
  0x61, 0xec, 0xbc, 0xbd, 0xc8, 0x21, 0x64, 0xbe, 0x51, 0xe4, 0xd8, 0x3d,
  0x45, 0x09, 0xfb, 0xbd, 0x5b, 0x76, 0xb1, 0xbd, 0x18, 0x14, 0x48, 0x3d,
  0x99, 0x7f, 0x2a, 0x3e, 0xf0, 0x66, 0x6a, 0xbe, 0xdb, 0xa5, 0x7a, 0x3e,
  0x92, 0x49, 0x34, 0x3d, 0xcc, 0xd2, 0xed, 0x3c, 0xb4, 0x0b, 0x3a, 0xbe,
  0xa4, 0xe5, 0xe4, 0xbd, 0x6f, 0x47, 0xfd, 0x3d, 0x1c, 0x98, 0x19, 0x3e,
  0xcf, 0x31, 0x95, 0x3e, 0x2d, 0xd6, 0x50, 0x3d, 0xd6, 0x5c, 0xa6, 0x3d,
  0x2e, 0x10, 0xa3, 0x3e, 0x89, 0x60, 0x7b, 0x3d, 0x38, 0x8f, 0xad, 0x3e,
  0xf8, 0xdd, 0x86, 0x3e, 0x91, 0x9d, 0x17, 0xbe, 0xe5, 0xc8, 0xa9, 0x3c,
  0x92, 0x87, 0x0f, 0xbe, 0x14, 0xc5, 0x6e, 0xbe, 0x52, 0xf6, 0x00, 0xbe,
  0x18, 0x4f, 0x5c, 0x3e, 0xdb, 0x3a, 0x4c, 0x3e, 0x3b, 0x46, 0x06, 0x3e,
  0xa4, 0xf7, 0xf7, 0x3c, 0x85, 0x9b, 0x96, 0xbd, 0x28, 0xc5, 0x82, 0x3e,
  0x47, 0xc6, 0x7d, 0x3e, 0x8b, 0xf6, 0xb0, 0xbd, 0x84, 0xa3, 0x25, 0x3e,
  0x1c, 0x60, 0x51, 0xbe, 0xa6, 0xbf, 0x3c, 0xbe, 0xe1, 0x8d, 0x0a, 0xbd,
  0x80, 0x71, 0x61, 0xbe, 0xa7, 0x44, 0xb0, 0x3d, 0x53, 0x3f, 0x4a, 0xbd,
  0xfb, 0x07, 0x5a, 0x3e, 0xee, 0x2a, 0xa2, 0x3e, 0xfa, 0x24, 0x6d, 0xbe,
  0xd9, 0x56, 0x21, 0x3e, 0x19, 0x0b, 0x73, 0x3d, 0x21, 0x9c, 0x03, 0xbd,
  0x62, 0x3a, 0x6e, 0xbe, 0x4d, 0x9e, 0x38, 0xbd, 0x41, 0x3f, 0xc3, 0xbd,
  0x1c, 0x32, 0xa2, 0x3c, 0xe7, 0x0d, 0x80, 0x3d, 0xf9, 0x3f, 0x2e, 0x3e,
  0x5b, 0x50, 0x6d, 0x3d, 0xe0, 0x24, 0x58, 0xbd, 0x9f, 0xe7, 0xc1, 0xbc,
  0xb3, 0x3e, 0x8a, 0x3d, 0x09, 0x54, 0x86, 0x3e, 0x94, 0x51, 0x13, 0xbe,
  0x60, 0xee, 0xaf, 0x3d, 0x08, 0xf2, 0x58, 0xbe, 0xb6, 0x00, 0x07, 0xbf,
  0x8a, 0x7a, 0x13, 0xbe, 0x5a, 0x80, 0x11, 0x3e, 0xbd, 0x17, 0x97, 0xbd,
  0x80, 0x2d, 0x0b, 0xbe, 0x0b, 0x38, 0xaa, 0xbd, 0x52, 0x9c, 0x17, 0xbe,
  0x32, 0xf9, 0x32, 0x3e, 0x1b, 0x12, 0x3b, 0x3e, 0x5a, 0xe7, 0x1a, 0xbe,
  0xec, 0x75, 0x27, 0x3e, 0xf1, 0x6b, 0x39, 0xbe, 0x00, 0xbb, 0x73, 0x3e,
  0x40, 0xd7, 0x21, 0x3d, 0x60, 0x25, 0x8d, 0xbd, 0x42, 0x2f, 0x26, 0xbe,
  0x22, 0x80, 0x42, 0xbe, 0x1f, 0xee, 0x15, 0xbe, 0x1f, 0x2e, 0x1c, 0xbe,
  0x76, 0x44, 0xb0, 0x3d, 0xff, 0xac, 0x27, 0x3e, 0x98, 0x10, 0x08, 0xbc,
  0x51, 0x45, 0xf3, 0x3d, 0x92, 0x0f, 0x1e, 0x3c, 0x91, 0x16, 0x90, 0xbe,
  0xe9, 0x2f, 0xcd, 0xbd, 0xb0, 0x80, 0xc2, 0xbc, 0xe9, 0x05, 0x00, 0xbe,
  0x69, 0x33, 0x86, 0xbd, 0x08, 0xe8, 0x2b, 0xbe, 0x9a, 0xf8, 0x42, 0x3d,
  0x11, 0x75, 0x61, 0xbe, 0x6a, 0x2e, 0xec, 0xbd, 0xfa, 0x38, 0x6b, 0x3e,
  0x47, 0xfe, 0x95, 0xbe, 0xdf, 0xa2, 0xbb, 0xbd, 0x42, 0xef, 0xe7, 0x3d,
  0xf6, 0x3d, 0x1f, 0x3e, 0x08, 0x08, 0xfe, 0x3c, 0x29, 0x97, 0x3e, 0x3e,
  0xb2, 0x08, 0xba, 0xbd, 0x96, 0xc4, 0x51, 0x3e, 0xa0, 0x63, 0x55, 0x3d,
  0xa6, 0xb8, 0xdd, 0xbc, 0x80, 0x3c, 0x73, 0x3e, 0xf9, 0x8e, 0xfe, 0x3d,
  0xf2, 0xe5, 0xc7, 0xbe, 0x87, 0x63, 0x27, 0x3d, 0xeb, 0x1c, 0x5e, 0x3e,
  0xd0, 0xf1, 0xee, 0xbd, 0x92, 0xb5, 0xb6, 0x3d, 0xff, 0x8b, 0xc7, 0x3d,
  0x09, 0x81, 0x92, 0xbd, 0x83, 0x15, 0xb2, 0x3d, 0x0a, 0x18, 0xa6, 0xbd,
  0x3f, 0x1a, 0x4f, 0x3e, 0x23, 0xd4, 0xa1, 0x3d, 0xce, 0x7b, 0x6f, 0xbe,
  0x26, 0xfc, 0xc3, 0xbd, 0x4a, 0x19, 0x99, 0x3d, 0xf0, 0x51, 0x41, 0x38,
  0x1c, 0x5b, 0x88, 0xbd, 0xc7, 0xcd, 0xad, 0xbd, 0x66, 0xcb, 0x42, 0x3e,
  0xdd, 0x6d, 0x2f, 0x3d, 0x8c, 0x1e, 0x68, 0x3e, 0xd8, 0x1b, 0x6b, 0x3e,
  0x04, 0x4c, 0x16, 0xbe, 0x03, 0xd2, 0x9d, 0x3e, 0x9f, 0x5c, 0xc4, 0xba,
  0xcc, 0xd9, 0x14, 0x3e, 0xc8, 0x0d, 0xff, 0x3d, 0x8f, 0xb7, 0x40, 0xbe,
  0x51, 0x64, 0x89, 0x3d, 0x6f, 0xa9, 0xf9, 0x3d, 0x25, 0x56, 0xc1, 0xbd,
  0x59, 0xa2, 0x19, 0x3e, 0xb0, 0x7d, 0x53, 0xbe, 0xb4, 0x13, 0x3d, 0x3e,
  0xfe, 0xe7, 0xa2, 0x3b, 0x4e, 0x25, 0xdb, 0x3c, 0x57, 0x6f, 0x53, 0xbc,
  0x5e, 0x28, 0x68, 0xbd, 0x75, 0x6e, 0x9d, 0xbd, 0x1f, 0x22, 0x0d, 0xbe,
  0x65, 0x02, 0x4c, 0xbe, 0xc9, 0x7b, 0x41, 0xbe, 0x51, 0xe3, 0xdf, 0xbd,
  0x63, 0x5f, 0x59, 0x3d, 0x3c, 0xde, 0x89, 0x3d, 0xe3, 0xdb, 0xe9, 0x3d,
  0x6e, 0xfb, 0x7b, 0xbe, 0x88, 0x87, 0x6f, 0xbd, 0x6f, 0x8b, 0xab, 0x3d,
  0x56, 0x09, 0xd8, 0x3d, 0x06, 0x39, 0x19, 0x3e, 0xde, 0x20, 0xb4, 0xbd,
  0x95, 0x06, 0xce, 0xbd, 0x49, 0x14, 0xa6, 0x3d, 0xc1, 0x22, 0xfe, 0x3d,
  0x21, 0x53, 0x32, 0xbe, 0x4a, 0x5a, 0xb6, 0xbc, 0x5f, 0x8a, 0x9d, 0xbd,
  0x24, 0x20, 0x85, 0xbd, 0x74, 0xb3, 0x27, 0xbe, 0x29, 0xca, 0xe1, 0x3b,
  0xa2, 0x76, 0xb6, 0xbd, 0x25, 0xcc, 0x84, 0x3e, 0x09, 0xa8, 0x42, 0xbd,
  0xe5, 0xca, 0xcb, 0x3c, 0x98, 0x8c, 0x89, 0x3c, 0x78, 0xf1, 0x21, 0x3e,
  0xa1, 0x58, 0x11, 0x3e, 0x4a, 0xcd, 0x59, 0x3e, 0x34, 0x1b, 0x1c, 0xbe,
  0xb6, 0x79, 0x19, 0xbe, 0xda, 0x15, 0x4f, 0xbe, 0x15, 0x0b, 0x82, 0xbe,
  0x5a, 0xa9, 0x3e, 0x3e, 0x9b, 0x08, 0x9d, 0x3d, 0x25, 0x80, 0x1d, 0xbd,
  0xf0, 0x67, 0x1a, 0x3e, 0xe6, 0x9f, 0x8a, 0x3e, 0x59, 0xe9, 0xa7, 0x3e,
  0x1f, 0x78, 0x77, 0x3d, 0x7b, 0x7b, 0xd0, 0x3d, 0x69, 0x8b, 0x5f, 0xbb,
  0xe4, 0xc0, 0x7b, 0x3e, 0x12, 0x5f, 0x84, 0x3d, 0x96, 0xc6, 0xc6, 0xbd,
  0x60, 0x73, 0x92, 0xbd, 0x31, 0xde, 0x89, 0xbe, 0x3f, 0x55, 0x2a, 0x3e,
  0xda, 0xa0, 0x74, 0x3e, 0xa7, 0x74, 0x56, 0x3e, 0x42, 0x07, 0x8d, 0x3e,
  0x2e, 0xbf, 0xb6, 0x3e, 0x69, 0xb0, 0xb2, 0x3e, 0x29, 0xba, 0xb5, 0x3d,
  0xd6, 0x12, 0x91, 0xbb, 0xf0, 0x3e, 0x4b, 0x3e, 0x84, 0x87, 0x34, 0x3e,
  0xf9, 0xda, 0xc7, 0x3c, 0x4b, 0x4d, 0xe1, 0x3b, 0x3f, 0x45, 0xb3, 0x3e,
  0xbb, 0x20, 0x87, 0x3e, 0x87, 0x6e, 0x4f, 0x3d, 0x8e, 0x8d, 0x10, 0xbe,
  0xe3, 0xfe, 0x13, 0x3e, 0x77, 0x70, 0x5c, 0xbc, 0x4e, 0x3f, 0x31, 0xbc,
  0xd5, 0x73, 0x74, 0xbe, 0x53, 0x61, 0xe0, 0xbd, 0x04, 0x28, 0xd5, 0xbd,
  0x86, 0x85, 0x92, 0xbd, 0x91, 0xaf, 0xcc, 0x3d, 0xb5, 0x76, 0xda, 0xbd,
  0xaa, 0x05, 0x3b, 0xbc, 0x68, 0xff, 0x48, 0x3e, 0xa3, 0xed, 0x1e, 0xbe,
  0x29, 0x2a, 0x1e, 0xbe, 0x40, 0x5c, 0x46, 0xbd, 0x6d, 0xb9, 0x3b, 0x3e,
  0x58, 0x01, 0xa6, 0xbe, 0xf6, 0xc7, 0xf5, 0xbd, 0xda, 0x5e, 0x51, 0x3c,
  0xd5, 0x54, 0x40, 0x3e, 0x7c, 0x83, 0x40, 0x3e, 0x44, 0xf7, 0x4a, 0x3d,
  0xd4, 0x1e, 0x83, 0x3b, 0x7b, 0xa1, 0x41, 0x3e, 0x96, 0x05, 0x17, 0xbe,
  0x58, 0x27, 0x83, 0x3d, 0x57, 0x12, 0x83, 0xbd, 0x1b, 0xff, 0x4a, 0xbc,
  0xb9, 0x32, 0xbb, 0xb8, 0x60, 0x82, 0x34, 0x3e, 0x57, 0xd6, 0x80, 0x3e,
  0xaf, 0x28, 0xcc, 0x3d, 0xd5, 0x34, 0x02, 0x3e, 0xee, 0x67, 0xc2, 0xbc,
  0x25, 0x7b, 0x70, 0x3e, 0x90, 0x51, 0x4c, 0xbe, 0xd2, 0xc8, 0x48, 0x3c,
  0x48, 0x1f, 0x02, 0xbe, 0x7f, 0xa9, 0x8a, 0x3e, 0xf7, 0xa6, 0x04, 0x3e,
  0xee, 0x74, 0xf1, 0x3d, 0x1d, 0x11, 0x41, 0x3d, 0x1f, 0xe5, 0xac, 0xbd,
  0x98, 0xdd, 0x04, 0x3e, 0xa4, 0x6e, 0x42, 0x3e, 0xa1, 0x83, 0x94, 0xbe,
  0x3b, 0xe0, 0xc6, 0x3d, 0x13, 0x3c, 0xaf, 0x3d, 0xf4, 0x1c, 0x26, 0x3e,
  0x89, 0x45, 0xac, 0xbe, 0x42, 0x13, 0x43, 0x3e, 0x5f, 0x7b, 0x78, 0xbe,
  0x20, 0xd7, 0x6a, 0xbd, 0x8f, 0xab, 0xd2, 0x3b, 0xa1, 0x3a, 0x86, 0x3e,
  0x9a, 0xb5, 0xb5, 0x3e, 0x6d, 0x94, 0x5d, 0x3e, 0x96, 0x26, 0xa1, 0x3e,
  0xcf, 0x97, 0x89, 0x3e, 0xd4, 0x5e, 0x13, 0x3d, 0x0c, 0xfe, 0x2b, 0x3e,
  0x11, 0xd4, 0xe0, 0x3d, 0x7f, 0x6f, 0xdc, 0x3d, 0x54, 0x6f, 0xd7, 0x3d,
  0xa0, 0x58, 0x0d, 0x3d, 0x48, 0x8b, 0x1b, 0xbe, 0x52, 0x4e, 0x57, 0x3d,
  0x21, 0x9f, 0xaa, 0xbd, 0x20, 0x76, 0x4a, 0xbd, 0x72, 0x1c, 0x06, 0x3e,
  0x8f, 0x33, 0x1a, 0x3c, 0x8c, 0x00, 0x09, 0xbe, 0x6a, 0xf9, 0xc0, 0xbe,
  0xb6, 0x37, 0x26, 0xbe, 0x11, 0xc7, 0xc2, 0xbd, 0x5d, 0x2b, 0x14, 0x3d,
  0xc0, 0x24, 0x25, 0x3e, 0x1e, 0xdf, 0x59, 0xbc, 0x47, 0x73, 0x35, 0xbd,
  0xc4, 0x14, 0xbf, 0xbc, 0x8a, 0x8e, 0x43, 0xbe, 0x01, 0xe2, 0x7b, 0x3e,
  0x69, 0xb1, 0x4c, 0x3d, 0x5d, 0x8a, 0x22, 0xbe, 0x99, 0xa2, 0x59, 0xbe,
  0x93, 0x74, 0xde, 0xbd, 0xfc, 0xa7, 0xf4, 0xbd, 0xe2, 0x71, 0xd6, 0xbd,
  0x1f, 0x27, 0x91, 0x3c, 0x52, 0xc2, 0x03, 0x3e, 0x13, 0xdf, 0x4c, 0xbe,
  0xd8, 0x7e, 0x05, 0x3e, 0x30, 0x6d, 0x96, 0xbd, 0x50, 0xf8, 0x1f, 0xbe,
  0xe0, 0x06, 0x0c, 0xbe, 0xc0, 0xfc, 0x16, 0x3e, 0x89, 0x17, 0x8a, 0xbe,
  0x49, 0xba, 0xa6, 0x3e, 0x4b, 0x65, 0x94, 0x3c, 0xdc, 0xb9, 0x24, 0x3e,
  0x25, 0xe9, 0x60, 0xbe, 0xcb, 0xbf, 0x5d, 0xbd, 0x4b, 0x81, 0x94, 0x3e,
  0x39, 0xaf, 0xfc, 0x3d, 0x9e, 0xc0, 0xef, 0xbd, 0x31, 0xbb, 0x53, 0xbe,
  0xfd, 0x5e, 0x52, 0x3d, 0x14, 0xc6, 0xa0, 0xbd, 0x9b, 0xfe, 0xe4, 0xbd,
  0x76, 0x9c, 0x78, 0xbe, 0xf4, 0xef, 0x6d, 0xbe, 0x0b, 0xa2, 0x0a, 0xbd,
  0xcf, 0xa7, 0xf0, 0xbc, 0x42, 0x67, 0x12, 0x3e, 0x2a, 0x80, 0x7d, 0xbd,
  0x34, 0x3a, 0x25, 0xbe, 0xed, 0x54, 0x4b, 0xbe, 0x77, 0x0e, 0x21, 0x3e,
  0x2b, 0xea, 0x40, 0xbe, 0xa6, 0x85, 0x95, 0x3d, 0x8f, 0x21, 0x44, 0xbe,
  0x47, 0x95, 0xe2, 0x3d, 0x4f, 0xff, 0xb5, 0x3d, 0x00, 0x3c, 0x60, 0x3c,
  0x7c, 0xf8, 0x70, 0x3d, 0x6c, 0x93, 0xa6, 0x3d, 0xdd, 0x51, 0x33, 0x3e,
  0xd7, 0x30, 0x31, 0xbc, 0x95, 0x83, 0xef, 0xbd, 0x42, 0x58, 0x8e, 0xbb,
  0x9f, 0x71, 0x1f, 0x3d, 0x0a, 0xba, 0xca, 0x3d, 0x2a, 0x63, 0x29, 0xbe,
  0xe3, 0x6e, 0xbb, 0x3d, 0x52, 0x0c, 0x77, 0x3d, 0x00, 0x71, 0xc7, 0xbd,
  0xf9, 0x21, 0x2e, 0x3d, 0xaa, 0x9f, 0xf6, 0x3d, 0x89, 0xda, 0x6e, 0xbe,
  0x7a, 0xa3, 0x8d, 0x3e, 0xb4, 0x85, 0xc6, 0x3e, 0xa3, 0x82, 0x04, 0x3d,
  0x69, 0x2d, 0x13, 0x3e, 0xaa, 0xe6, 0x84, 0x3e, 0x63, 0x49, 0x19, 0xba,
  0x95, 0x00, 0x22, 0xbe, 0x3e, 0x64, 0x33, 0xbe, 0x25, 0xd9, 0xe8, 0x3d,
  0xed, 0x0e, 0x4a, 0xbe, 0x3f, 0x53, 0x51, 0xbb, 0x79, 0x89, 0x4a, 0x3e,
  0x53, 0xba, 0xb2, 0xbd, 0xe7, 0xdc, 0xfa, 0x3c, 0x9f, 0x4f, 0x11, 0x3d,
  0x69, 0x2b, 0x9c, 0x3d, 0x3a, 0xd9, 0x1c, 0xbd, 0x9e, 0x5f, 0x5c, 0x3e,
  0x04, 0x1a, 0xf2, 0x3d, 0x08, 0x82, 0xa1, 0x3d, 0x4e, 0x63, 0xbd, 0xbd,
  0x2e, 0xce, 0x79, 0x3e, 0x38, 0xf6, 0x15, 0xbe, 0x63, 0x69, 0xa4, 0x3d,
  0xc0, 0x10, 0x81, 0xbe, 0xa9, 0x92, 0x13, 0xbe, 0x44, 0xc0, 0xcb, 0x3d,
  0xa9, 0x9e, 0x52, 0x3c, 0x39, 0xc7, 0xce, 0xbd, 0x42, 0x83, 0x51, 0xbd,
  0x25, 0xca, 0x9b, 0xbd, 0x4b, 0x43, 0x49, 0xbd, 0x77, 0xa2, 0xd9, 0xbd,
  0x96, 0x74, 0x02, 0x3c, 0xc5, 0xb0, 0x49, 0xbe, 0xfc, 0xe3, 0x3b, 0x3e,
  0x75, 0xb2, 0x33, 0xbe, 0xba, 0x4f, 0x61, 0xbe, 0xfe, 0x92, 0x00, 0x3e,
  0x0b, 0x6c, 0x70, 0xbd, 0xcc, 0x87, 0x3b, 0xbe, 0x61, 0x9b, 0xde, 0x3d,
  0x38, 0x6b, 0x7d, 0xbe, 0x47, 0x98, 0x24, 0xbe, 0xb6, 0x77, 0x21, 0x3d,
  0x10, 0x8c, 0x4c, 0x3e, 0x68, 0xe9, 0xb5, 0x3d, 0x20, 0xf0, 0x00, 0x3e,
  0xbd, 0xbc, 0x57, 0x3e, 0x3f, 0x70, 0xb7, 0xbd, 0x85, 0x26, 0xe5, 0x3d,
  0x3a, 0x5d, 0x8f, 0x3d, 0xaa, 0x14, 0x2b, 0xbd, 0xe3, 0xcf, 0x19, 0x3d,
  0x8f, 0xb9, 0x78, 0xbc, 0x16, 0xeb, 0x04, 0x3d, 0xcd, 0x16, 0xe2, 0xbc,
  0xab, 0x05, 0xec, 0xbc, 0x0a, 0x83, 0x7e, 0x3d, 0x60, 0x20, 0x4d, 0xbe,
  0x9a, 0x73, 0xf2, 0x3d, 0xf3, 0x53, 0x34, 0xbe, 0x76, 0xa4, 0x46, 0xbe,
  0x2b, 0x64, 0x8a, 0xbe, 0x02, 0x3c, 0x9f, 0x3c, 0x04, 0x9b, 0x46, 0xbe,
  0x49, 0x5f, 0x27, 0xbe, 0xe5, 0x43, 0x8e, 0xbd, 0x7a, 0x84, 0xab, 0x3d,
  0xb0, 0x43, 0x59, 0x39, 0x40, 0x04, 0x71, 0xbe, 0x0d, 0xe2, 0x5c, 0xb9,
  0xe1, 0x3b, 0x6d, 0x3d, 0x6e, 0x1e, 0xf0, 0xbd, 0xdd, 0x21, 0x50, 0x3d,
  0xaf, 0xc6, 0xac, 0xbd, 0x7f, 0xa9, 0x6f, 0x3d, 0xb8, 0xa0, 0x17, 0xbe,
  0x3e, 0xf2, 0x47, 0xbe, 0xaa, 0xf4, 0xac, 0xbd, 0xb8, 0x84, 0x60, 0xbe,
  0x19, 0x1d, 0x06, 0x3d, 0x7c, 0x52, 0xff, 0xbd, 0x65, 0x99, 0x07, 0xbd,
  0x8f, 0x88, 0xe5, 0xbd, 0x61, 0x75, 0x1c, 0x3e, 0x5c, 0xb9, 0x9e, 0xbe,
  0x89, 0x9d, 0x20, 0xbe, 0x16, 0xb3, 0x2b, 0x3e, 0x34, 0xc1, 0x86, 0x3d,
  0x7c, 0xf4, 0x71, 0xbe, 0x8c, 0xf9, 0x49, 0xbe, 0x68, 0xdc, 0x5b, 0xbe,
  0x98, 0xf6, 0x24, 0x3e, 0x7d, 0x7f, 0x01, 0x3e, 0xc7, 0x04, 0x96, 0x3d,
  0x88, 0xb6, 0x94, 0x3e, 0x11, 0x71, 0x89, 0x3a, 0xdf, 0xfe, 0xb6, 0x3d,
  0xf3, 0x04, 0xaa, 0x3e, 0x28, 0x02, 0x84, 0x3e, 0xe5, 0x84, 0x8e, 0x3e,
  0x85, 0x6a, 0xa3, 0xbd, 0x3d, 0xa1, 0x1a, 0x3e, 0x2e, 0xa8, 0x82, 0xbe,
  0x73, 0xa6, 0x89, 0xbe, 0x82, 0x84, 0x33, 0xbe, 0xba, 0xd6, 0x7d, 0xbb,
  0x19, 0x77, 0x10, 0x3d, 0x5c, 0x8a, 0x27, 0x3d, 0xc5, 0x29, 0x9e, 0x3e,
  0x7f, 0xe9, 0x6b, 0x3e, 0xc5, 0x65, 0x8c, 0x3d, 0xcb, 0xc9, 0x2d, 0x3e,
  0x1b, 0xea, 0xc1, 0x3e, 0x59, 0xb2, 0x5b, 0x3e, 0x55, 0xe4, 0x40, 0x3e,
  0xd4, 0x14, 0x17, 0x3c, 0x3c, 0x19, 0x12, 0xbc, 0x8f, 0x72, 0xad, 0x3c,
  0x7d, 0x18, 0x4c, 0xbc, 0xef, 0x9f, 0x39, 0xbe, 0x81, 0xba, 0x24, 0x3e,
  0x23, 0xa0, 0x16, 0xbd, 0xc3, 0x6d, 0x1b, 0xbe, 0xad, 0xce, 0x11, 0xbe,
  0xcc, 0xa8, 0xd1, 0x3c, 0x90, 0x62, 0x25, 0xbe, 0xfb, 0xea, 0x3c, 0xbe,
  0x01, 0xa4, 0x53, 0xbe, 0x0e, 0x4c, 0x3d, 0xbd, 0x5a, 0x0a, 0xf2, 0xbd,
  0x2f, 0x84, 0xd1, 0xbd, 0x92, 0xb5, 0xe7, 0xbd, 0x19, 0xcb, 0x37, 0x3e,
  0x37, 0x69, 0xd0, 0x3c, 0x8a, 0x06, 0x55, 0x3e, 0x44, 0x56, 0xc2, 0x3d,
  0x9b, 0xd9, 0x67, 0xbd, 0x57, 0xdb, 0xe5, 0xbb, 0xa9, 0x60, 0x66, 0x3e,
  0x37, 0x11, 0xf3, 0xbd, 0x2a, 0x2b, 0x78, 0xbd, 0xdf, 0xda, 0x5f, 0x3c,
  0xc6, 0xe5, 0x86, 0xbd, 0x4d, 0xd7, 0x36, 0x3e, 0xbf, 0x2a, 0x81, 0x3e,
  0xaa, 0x7a, 0xbe, 0x3d, 0x87, 0xab, 0xb0, 0x3d, 0x8b, 0xf1, 0x16, 0xbe,
  0x61, 0x52, 0xa8, 0xbd, 0xad, 0xb2, 0xfd, 0xbd, 0x32, 0x05, 0x91, 0x3e,
  0x88, 0x52, 0x35, 0xbe, 0x26, 0x93, 0x20, 0xbe, 0x6e, 0xbb, 0x98, 0xbe,
  0xd4, 0x90, 0x79, 0xbd, 0x32, 0x9f, 0x0a, 0xbe, 0xc6, 0x4a, 0x81, 0xbe,
  0x0f, 0x3a, 0x85, 0x3d, 0xb6, 0xfc, 0x84, 0x3e, 0x76, 0x2c, 0xed, 0x3c,
  0x77, 0x6a, 0x20, 0xbd, 0x33, 0x15, 0x83, 0x3d, 0x8f, 0xe6, 0x03, 0x3c,
  0xac, 0x9e, 0xec, 0xbd, 0xfa, 0xc7, 0x97, 0x3e, 0xe3, 0x0d, 0xcd, 0xbd,
  0x31, 0x48, 0x84, 0xbe, 0x90, 0xf6, 0x83, 0xbe, 0x75, 0x80, 0x96, 0x3e,
  0xa1, 0xc9, 0x11, 0xbe, 0x41, 0x2f, 0x67, 0xbe, 0x96, 0x6d, 0x91, 0xbe,
  0x9f, 0x36, 0x02, 0x3e, 0x78, 0x5f, 0xe2, 0x3d, 0x26, 0x96, 0x7e, 0x3e,
  0xc3, 0x41, 0xed, 0x3d, 0x2d, 0xde, 0xb9, 0x3e, 0xe1, 0x29, 0xa7, 0x3e,
  0x8c, 0x1b, 0x6f, 0xbd, 0xa5, 0xc0, 0xde, 0x3d, 0x61, 0x3c, 0x20, 0x3e,
  0xb9, 0xd9, 0xd5, 0x3d, 0x1b, 0xc1, 0xa2, 0xbd, 0x03, 0x01, 0x8c, 0xbd,
  0x57, 0xb2, 0x8f, 0x3c, 0x08, 0x4e, 0x62, 0x3e, 0x55, 0xd8, 0x4e, 0x3e,
  0xee, 0x25, 0xcc, 0x3d, 0x10, 0x76, 0x69, 0x3e, 0xdc, 0x0c, 0xa8, 0x3d,
  0x75, 0xff, 0x04, 0xbe, 0x4b, 0xeb, 0xfd, 0xba, 0x2b, 0xf1, 0x1b, 0x3e,
  0xed, 0x09, 0x2d, 0xbe, 0x98, 0x1f, 0x22, 0xbe, 0xd1, 0x9b, 0x22, 0xbe,
  0x16, 0x81, 0x5c, 0xbe, 0xcc, 0xc3, 0xc7, 0x3e, 0xb9, 0xd4, 0x2c, 0x3e,
  0xaf, 0xf0, 0x4c, 0xbe, 0x71, 0xb4, 0xb5, 0x3e, 0xa0, 0x13, 0x75, 0xbd,
  0x4b, 0x6a, 0xa2, 0x3d, 0x97, 0xaa, 0x60, 0x3d, 0xab, 0x2b, 0xeb, 0xbd,
  0x8d, 0xc2, 0xd1, 0xbe, 0x24, 0x40, 0x25, 0x3e, 0x5e, 0x4e, 0x72, 0x3e,
  0x37, 0x93, 0x1f, 0x3e, 0x91, 0x3d, 0xce, 0xbd, 0xe2, 0xa0, 0x08, 0xbe,
  0x8d, 0x2f, 0x98, 0x3d, 0x55, 0x14, 0x2e, 0x3d, 0xc0, 0x44, 0x34, 0xbd,
  0xb7, 0x5d, 0x7b, 0x3c, 0x17, 0x70, 0x8b, 0x3e, 0xbb, 0x04, 0x8b, 0xbe,
  0xae, 0x80, 0x5c, 0x3e, 0x6f, 0xbe, 0xe8, 0x3d, 0x8a, 0x1d, 0x64, 0x3e,
  0xbd, 0x74, 0x37, 0x3e, 0x37, 0x4d, 0x98, 0x3e, 0x61, 0xfd, 0x29, 0xbe,
  0x82, 0xb2, 0x93, 0xbe, 0x44, 0xb2, 0xed, 0x3d, 0x3d, 0x53, 0x6d, 0xbe,
  0x3b, 0x89, 0x14, 0xbe, 0x7e, 0x4a, 0x88, 0x3e, 0xe9, 0x06, 0x85, 0x3e,
  0x03, 0x2a, 0xd1, 0xbd, 0x9a, 0xa5, 0x1a, 0xbe, 0x7f, 0x14, 0x7c, 0x3d,
  0x7f, 0x29, 0xb5, 0x3d, 0xdd, 0x5e, 0xa4, 0x3e, 0x60, 0x92, 0x38, 0x3e,
  0x03, 0x0d, 0x8f, 0x3e, 0xc5, 0x50, 0xaa, 0x3d, 0x01, 0x65, 0x3c, 0xbd,
  0xf6, 0x29, 0x52, 0x3b, 0x9b, 0x4c, 0x55, 0xbe, 0x59, 0xa7, 0x05, 0xbe,
  0xf7, 0x92, 0x04, 0x3d, 0x61, 0xa8, 0x0a, 0x3e, 0x5d, 0xc6, 0x9b, 0xbc,
  0x0e, 0x9e, 0x47, 0xbd, 0xda, 0x49, 0x24, 0xbd, 0xcb, 0x56, 0x17, 0x3e,
  0x16, 0x91, 0x53, 0x3c, 0xea, 0x4c, 0x03, 0x3e, 0x81, 0xc0, 0xe4, 0xbd,
  0xc9, 0x29, 0x6b, 0xbe, 0x4e, 0x1b, 0x61, 0x3c, 0x45, 0xfa, 0x11, 0xbe,
  0x80, 0x3e, 0x22, 0x3e, 0xab, 0xe4, 0x79, 0x3e, 0x59, 0x53, 0x08, 0x3d,
  0x67, 0xc0, 0xe3, 0xbd, 0xa2, 0x7b, 0x6f, 0x3e, 0x65, 0xf4, 0xaa, 0xbd,
  0x3e, 0xec, 0x92, 0x3d, 0xf0, 0xdf, 0xc2, 0x3d, 0x04, 0x86, 0x1b, 0xbe,
  0xfa, 0x0c, 0x26, 0xbe, 0xb2, 0x54, 0xab, 0xbe, 0xa7, 0xa7, 0xb2, 0xbe,
  0x75, 0x9d, 0x37, 0xbe, 0x1f, 0x34, 0xd5, 0xbc, 0xc9, 0x53, 0xe5, 0x3d,
  0x7b, 0x1a, 0xf5, 0xbd, 0x99, 0x9d, 0x61, 0x3d, 0xbe, 0x53, 0x31, 0xbe,
  0xcb, 0x87, 0x8a, 0x3e, 0xfe, 0x73, 0x2e, 0xbc, 0x38, 0x31, 0x43, 0x3e,
  0x7d, 0xa9, 0x19, 0xbe, 0xde, 0x10, 0xa3, 0xbd, 0x68, 0x50, 0x3b, 0x3e,
  0x50, 0xaa, 0x3e, 0xbd, 0x2b, 0xe9, 0x3c, 0xbe, 0x26, 0xef, 0xaf, 0x3c,
  0xad, 0x61, 0xaa, 0x3e, 0xe4, 0xf8, 0xde, 0xbd, 0x3c, 0x86, 0xaa, 0xbd,
  0xb5, 0x57, 0x03, 0xbe, 0x13, 0x72, 0xc0, 0xbd, 0x47, 0x91, 0x4d, 0xbe,
  0x21, 0xf1, 0xbb, 0xbd, 0x67, 0x84, 0x69, 0x3e, 0x03, 0xf4, 0x87, 0x3d,
  0xc5, 0xc9, 0x06, 0x3d, 0xe9, 0xb8, 0x91, 0xbd, 0x75, 0x0e, 0x1f, 0xbe,
  0x80, 0x68, 0x30, 0x3e, 0x35, 0xf1, 0xf3, 0xbc, 0x79, 0xf4, 0x88, 0x3e,
  0x69, 0xbb, 0x2a, 0xbe, 0x3e, 0xf0, 0xfb, 0x3c, 0x6d, 0xa2, 0x0c, 0x3e,
  0x52, 0x61, 0x9f, 0x3e, 0x19, 0x25, 0xc9, 0x3d, 0x37, 0x24, 0x2b, 0x3e,
  0x77, 0x2e, 0x28, 0x3e, 0xb9, 0xd9, 0x04, 0xbc, 0xfa, 0x7d, 0x28, 0x3d,
  0xfc, 0xcd, 0xae, 0x3d, 0x45, 0x1d, 0xd7, 0x3d, 0xbe, 0xa5, 0x40, 0x3e,
  0x45, 0xac, 0x3c, 0x3e, 0x25, 0x40, 0x17, 0x3e, 0x7c, 0x1f, 0xe1, 0x3c,
  0x8d, 0x22, 0xef, 0xbb, 0x0c, 0x06, 0xd1, 0xbd, 0x5d, 0xfe, 0xf9, 0xbd,
  0x42, 0x83, 0x91, 0xbc, 0x5a, 0xbc, 0x17, 0x3e, 0xc3, 0xf7, 0xc8, 0x3c,
  0xde, 0xaf, 0x89, 0x3e, 0x99, 0x4e, 0x43, 0x3e, 0x7d, 0xf3, 0x50, 0x3e,
  0xd9, 0xa9, 0xc8, 0x3d, 0x2a, 0x1c, 0x26, 0xbe, 0x42, 0x20, 0x69, 0xbe,
  0x5b, 0xdc, 0xff, 0x3d, 0x43, 0x29, 0x5d, 0xbe, 0x63, 0xdd, 0x75, 0xbe,
  0x59, 0x9b, 0x4f, 0x3c, 0x3a, 0x83, 0x28, 0x3d, 0x7e, 0x0c, 0xcc, 0xbc,
  0x25, 0x43, 0x38, 0xbd, 0x01, 0x2a, 0x39, 0x3c, 0xec, 0x89, 0x63, 0xbc,
  0xfb, 0x66, 0x4f, 0x3e, 0x16, 0x45, 0x40, 0x3e, 0x09, 0x8d, 0x81, 0xbd,
  0x6b, 0xf6, 0x88, 0xbd, 0xbe, 0x3f, 0x09, 0x3e, 0x05, 0x8a, 0x48, 0xbe,
  0x73, 0x54, 0xa0, 0x3e, 0xa2, 0xfb, 0xa3, 0xbb, 0x7d, 0x71, 0x93, 0xbe,
  0x2e, 0x43, 0x65, 0xbe, 0x0a, 0x2a, 0x84, 0xbc, 0x12, 0x47, 0xf5, 0x3d,
  0xa6, 0x95, 0xa4, 0x3e, 0x59, 0x76, 0x97, 0xbd, 0x9f, 0x3a, 0xa3, 0xba,
  0x10, 0x33, 0xf2, 0x3d, 0x05, 0xd0, 0xb0, 0x3d, 0xea, 0xd5, 0x36, 0xbe,
  0x2a, 0xf3, 0x1f, 0xbe, 0x3e, 0x9a, 0x55, 0xbe, 0x18, 0x4c, 0x92, 0xbd,
  0xe1, 0x06, 0x93, 0x3c, 0xd6, 0x7d, 0x42, 0x3d, 0xe6, 0x83, 0x3e, 0x3d,
  0xa0, 0x6a, 0x19, 0x3c, 0xcf, 0xdf, 0x33, 0x3e, 0x9a, 0x4c, 0x4e, 0xbe,
  0xb9, 0x34, 0x50, 0x3d, 0x27, 0x96, 0xeb, 0xbd, 0xce, 0xcb, 0x6a, 0x3e,
  0x47, 0xd0, 0x9e, 0x3d, 0x87, 0x4f, 0x22, 0x3e, 0xae, 0x8d, 0x56, 0x3d,
  0x6d, 0xa7, 0x2b, 0x3d, 0xb8, 0xd6, 0x65, 0xbe, 0x46, 0x6a, 0x17, 0x3e,
  0x0a, 0xf4, 0x1f, 0xbe, 0xea, 0xe9, 0x6a, 0x3d, 0x18, 0xd1, 0x45, 0xbd,
  0xd9, 0x8a, 0x67, 0x3e, 0xe5, 0x9c, 0xb0, 0x3c, 0x55, 0xfa, 0xff, 0xbd,
  0x74, 0xeb, 0x3e, 0x3c, 0x2b, 0x47, 0x18, 0x3e, 0x93, 0x7b, 0x3c, 0xbe,
  0x8d, 0x9d, 0x7e, 0xbb, 0x23, 0xd5, 0x71, 0x3d, 0xaa, 0xba, 0x84, 0xbe,
  0x5c, 0x9b, 0x0d, 0xbe, 0xe7, 0xfb, 0xb1, 0xbd, 0xaa, 0x5b, 0x12, 0xbe,
  0xba, 0x25, 0x47, 0x3e, 0x50, 0x92, 0xbc, 0x3d, 0xc1, 0x2c, 0x4e, 0xbc,
  0x42, 0xf2, 0xe6, 0x3c, 0xb1, 0xc1, 0xb4, 0xbd, 0x45, 0xc1, 0x08, 0xbe,
  0x99, 0x21, 0x8c, 0xbc, 0x17, 0x5c, 0x1f, 0xbd, 0x86, 0x9c, 0x14, 0xbd,
  0x55, 0x83, 0xec, 0xbc, 0x8a, 0x5b, 0x14, 0x3e, 0xd6, 0xf9, 0xda, 0xbd,
  0x12, 0x34, 0x93, 0xbd, 0x38, 0x0b, 0x34, 0x3c, 0xcc, 0x89, 0x63, 0xbe,
  0x61, 0xbd, 0x4b, 0xbd, 0xe6, 0x62, 0x6a, 0xbe, 0x13, 0x00, 0x8d, 0xbe,
  0xc8, 0x78, 0xa9, 0x3d, 0x61, 0x8b, 0xd7, 0x3d, 0x6c, 0x0c, 0xa0, 0xbe,
  0xb8, 0x6c, 0x14, 0xbe, 0x32, 0x3d, 0x7a, 0x3d, 0x34, 0x08, 0x22, 0x3d,
  0x5a, 0x6c, 0xf3, 0x3d, 0x7e, 0xc3, 0x0e, 0x3e, 0xae, 0x5f, 0x85, 0x3e,
  0x51, 0xfd, 0x29, 0xbe, 0xb2, 0x9e, 0x02, 0x3e, 0x4f, 0xb8, 0x29, 0xbe,
  0x3b, 0x07, 0x23, 0xbd, 0x05, 0xcf, 0xb7, 0xbe, 0xd4, 0xcb, 0x8b, 0xbe,
  0x10, 0xbd, 0x56, 0xbd, 0x6d, 0x9d, 0x98, 0x3e, 0xb2, 0xfc, 0x1a, 0xbd,
  0x36, 0x6a, 0xe6, 0x3d, 0xb8, 0xd3, 0x28, 0xbe, 0x84, 0x26, 0x70, 0x3e,
  0x22, 0x14, 0x08, 0xbe, 0xa3, 0x5f, 0x39, 0xbe, 0x05, 0xbf, 0x19, 0xbd,
  0x88, 0x21, 0x3f, 0x3d, 0x33, 0x19, 0x91, 0x3d, 0xfa, 0x1f, 0x80, 0x3d,
  0xe1, 0xaa, 0x49, 0x3d, 0x83, 0xe3, 0xfc, 0xbd, 0x82, 0x0d, 0x92, 0x3e,
  0x97, 0x37, 0x46, 0x3e, 0xe5, 0x68, 0x2c, 0xbe, 0x60, 0x22, 0xf9, 0x3d,
  0xb9, 0x42, 0x85, 0x3d, 0x7f, 0xd6, 0x0b, 0x3e, 0x31, 0x88, 0x72, 0xbe,
  0x07, 0x9f, 0x92, 0x3d, 0xce, 0x63, 0xa7, 0xbd, 0x47, 0xdb, 0x23, 0x3b,
  0x26, 0x08, 0x08, 0x3e, 0x36, 0x56, 0xda, 0x3d, 0xfd, 0x69, 0x9d, 0x3c,
  0x42, 0xff, 0x45, 0x3c, 0x81, 0x0e, 0xc9, 0x3e, 0x87, 0x1f, 0x36, 0x3e,
  0x68, 0x90, 0xcb, 0x3a, 0x0f, 0x66, 0xab, 0x3d, 0xc1, 0x05, 0xc8, 0xbc,
  0xb8, 0x73, 0xd9, 0x3d, 0x9a, 0xa9, 0x86, 0xbe, 0xd4, 0x6e, 0x81, 0xbe,
  0xcc, 0x1f, 0x8c, 0xbd, 0xd9, 0xa2, 0xf5, 0x3d, 0x66, 0xae, 0x06, 0x3e,
  0xd0, 0x71, 0x9c, 0xbd, 0x9c, 0x24, 0x1e, 0x3e, 0xcd, 0xb9, 0x64, 0x3c,
  0xa6, 0x75, 0x4c, 0x3e, 0x42, 0xf4, 0x4e, 0x3e, 0xf3, 0x2b, 0x01, 0xbe,
  0x30, 0x8f, 0xae, 0xbe, 0x81, 0x0f, 0x1a, 0xbe, 0x22, 0xb9, 0x92, 0xbd,
  0xe1, 0x2c, 0x58, 0xbb, 0xdc, 0x8f, 0x10, 0xbe, 0x24, 0xff, 0xa9, 0x3d,
  0x4c, 0xd2, 0x14, 0x3e, 0x92, 0x10, 0x69, 0xbe, 0x22, 0xd7, 0x6e, 0xbe,
  0x2c, 0x89, 0x39, 0x3d, 0x8e, 0x10, 0xf2, 0xbd, 0x8c, 0xfb, 0x24, 0x3e,
  0x27, 0x00, 0x8a, 0xbd, 0x6d, 0x4d, 0x71, 0xbb, 0x30, 0x4d, 0x23, 0xbe,
  0xd1, 0x0c, 0x43, 0x3e, 0x49, 0x65, 0xd7, 0x3d, 0x43, 0x73, 0xd3, 0x3d,
  0xbf, 0x74, 0x1d, 0x3d, 0xda, 0x87, 0x5c, 0x3d, 0xe0, 0xa8, 0xa1, 0xbd,
  0xbb, 0x2d, 0x59, 0xbe, 0x07, 0x0b, 0x68, 0xbd, 0x5e, 0x2d, 0xfb, 0xbd,
  0x02, 0xd4, 0xed, 0x3d, 0x77, 0xb7, 0x0f, 0xbe, 0xbc, 0x32, 0x51, 0xbd,
  0x18, 0x17, 0x21, 0xbe, 0x35, 0x47, 0x2e, 0xbd, 0x9e, 0x3f, 0xa3, 0x3d,
  0xc3, 0x3e, 0x46, 0x3d, 0x96, 0xee, 0x31, 0x3b, 0x47, 0xb1, 0x89, 0xbe,
  0x88, 0xe2, 0x66, 0x3e, 0x7d, 0xb1, 0x3b, 0x3e, 0x1c, 0x89, 0x41, 0x3e,
  0x7d, 0xb7, 0xd7, 0xbd, 0x82, 0xe0, 0x39, 0x3e, 0x6a, 0x01, 0xb3, 0xbb,
  0xc8, 0xf5, 0x96, 0xbe, 0x8a, 0xf4, 0x8a, 0x3c, 0xaf, 0x87, 0x6e, 0xbe,
  0x10, 0x5e, 0xb8, 0xbd, 0x78, 0x13, 0x5a, 0x3e, 0x9e, 0x0e, 0x50, 0x3e,
  0x0e, 0x58, 0x7a, 0xbe, 0xf6, 0xcd, 0x67, 0xbd, 0xef, 0x15, 0x61, 0xbd,
  0xe3, 0x60, 0xba, 0x3a, 0xc5, 0x97, 0xff, 0x3c, 0x06, 0x77, 0x2d, 0xbe,
  0x5a, 0xf0, 0x7a, 0x3c, 0x28, 0x01, 0x38, 0xbd, 0x8b, 0xf0, 0x12, 0x3e,
  0x7c, 0xc0, 0xb9, 0x3d, 0xea, 0x74, 0x74, 0xbd, 0x28, 0x3c, 0xec, 0xbd,
  0x7d, 0x23, 0x04, 0xbd, 0x66, 0xba, 0x1b, 0x3e, 0x14, 0x85, 0x10, 0x3d,
  0x76, 0x6d, 0xc3, 0x3d, 0x9a, 0x0b, 0x42, 0x3e, 0x30, 0x7a, 0x3f, 0x3e,
  0xec, 0x40, 0x82, 0x3e, 0xe2, 0x30, 0x37, 0x3e, 0xed, 0xe5, 0x8a, 0x3d,
  0xbe, 0x05, 0x0c, 0x3d, 0x88, 0x07, 0x28, 0xbd, 0xc5, 0xf5, 0x04, 0x3e,
  0xb8, 0xfc, 0x25, 0x3e, 0xe6, 0x40, 0xb0, 0xbd, 0x46, 0xa3, 0xea, 0x3d,
  0x70, 0x62, 0x90, 0x3d, 0xf7, 0x71, 0x62, 0xbe, 0xb2, 0x71, 0x02, 0x3d,
  0xc0, 0x1f, 0x06, 0x3e, 0xfd, 0x17, 0x22, 0xbd, 0xf1, 0x67, 0x0f, 0xbe,
  0xcc, 0x1a, 0xae, 0xbe, 0x11, 0x79, 0x43, 0xbe, 0x4e, 0x95, 0xc8, 0xbd,
  0x5b, 0x3b, 0xef, 0x3c, 0x21, 0xbc, 0x8a, 0x3a, 0xe6, 0xcc, 0xda, 0xbc,
  0xe8, 0x51, 0x7a, 0xba, 0x62, 0x1c, 0x1b, 0x3e, 0x99, 0x22, 0xa1, 0x3e,
  0xe5, 0x41, 0x80, 0xbc, 0xf4, 0x37, 0xd4, 0xbd, 0x45, 0x82, 0x1c, 0xbe,
  0x8a, 0x53, 0xad, 0x3e, 0xc4, 0x0c, 0x4a, 0x3e, 0x70, 0x6b, 0x48, 0x3d,
  0xa2, 0xd7, 0x63, 0x3e, 0x09, 0xa8, 0x57, 0xbe, 0x52, 0x75, 0x74, 0x3e,
  0xae, 0x85, 0x76, 0x3e, 0x40, 0x95, 0xa9, 0x3e, 0xdb, 0x95, 0x4f, 0x3e,
  0xb3, 0x9d, 0x81, 0x3e, 0xc2, 0x25, 0x0f, 0x3f, 0x8a, 0x40, 0xc6, 0xbd,
  0x25, 0xcf, 0x95, 0xbd, 0x65, 0xa4, 0x3f, 0x3d, 0x9d, 0x83, 0x3a, 0xbe,
  0x63, 0x8d, 0xc1, 0xbd, 0x0f, 0x93, 0xce, 0x3d, 0x2e, 0xc1, 0xe3, 0x3d,
  0x6d, 0xe1, 0xfc, 0xbc, 0xe0, 0xf6, 0x72, 0xbd, 0x12, 0x4c, 0x2e, 0x3e,
  0x59, 0x69, 0x01, 0x3e, 0xa4, 0x23, 0x3c, 0x3d, 0x2a, 0x48, 0x99, 0x3d,
  0xad, 0xa3, 0xf7, 0xbd, 0xe1, 0xf3, 0x66, 0xbc, 0xa8, 0x6e, 0x19, 0xbe,
  0xb4, 0x24, 0x21, 0xbe, 0x57, 0x5d, 0x36, 0x3e, 0x01, 0x75, 0xad, 0xbc,
  0x45, 0xfe, 0x36, 0x3d, 0xb8, 0x4e, 0xa5, 0x3e, 0x01, 0x77, 0x2e, 0x3c,
  0x45, 0x31, 0xca, 0xbd, 0x03, 0x34, 0x82, 0x3e, 0x04, 0x26, 0x54, 0x3e,
  0xe8, 0x0d, 0x22, 0xbe, 0x72, 0xe0, 0x06, 0x3f, 0xed, 0xbf, 0x83, 0xbc,
  0xd3, 0x94, 0xa3, 0xbe, 0x6a, 0xc0, 0xc6, 0xbc, 0x1e, 0xe9, 0x8e, 0xbd,
  0x7b, 0xc6, 0x89, 0xbe, 0x97, 0x70, 0xbc, 0xbe, 0x79, 0xba, 0xcb, 0xbe,
  0x85, 0xd5, 0x40, 0xbe, 0x09, 0x32, 0x12, 0xbe, 0xc0, 0xc2, 0x60, 0x3e,
  0x32, 0xd2, 0x2d, 0xbe, 0xce, 0x28, 0xe7, 0xbd, 0xe6, 0x36, 0x52, 0x3e,
  0x6e, 0x57, 0x23, 0xbd, 0xce, 0xe6, 0x77, 0xbd, 0x44, 0x09, 0x12, 0x3f,
  0xbf, 0x8b, 0xcf, 0x3d, 0x82, 0xb9, 0x68, 0x3c, 0x9c, 0xbf, 0x50, 0x3e,
  0x79, 0x71, 0x06, 0xbd, 0xb5, 0xe6, 0xf3, 0xbd, 0x38, 0x62, 0x40, 0xbc,
  0x8f, 0x60, 0xd4, 0x3b, 0x03, 0x4e, 0x6c, 0x3e, 0x34, 0x88, 0x3e, 0x3d,
  0x7e, 0x4f, 0xcd, 0x3d, 0xd2, 0x5a, 0xb0, 0x3d, 0x26, 0xf9, 0x34, 0xbe,
  0x0b, 0xcc, 0x5a, 0xbd, 0x9b, 0x5a, 0xea, 0x3d, 0xf5, 0xb8, 0x93, 0x3e,
  0xec, 0x55, 0xa6, 0xbd, 0x3d, 0x63, 0x2c, 0xbd, 0x26, 0x7f, 0x2f, 0xbe,
  0x44, 0x28, 0x5b, 0x3e, 0x6d, 0x04, 0x1d, 0x3e, 0xb7, 0xc3, 0x61, 0x3e,
  0xfc, 0x21, 0xa6, 0xbe, 0x34, 0x79, 0x8d, 0xbe, 0x77, 0xfa, 0x14, 0x3e,
  0xae, 0xda, 0x87, 0x3c, 0x80, 0xcb, 0x65, 0x3e, 0x32, 0xa9, 0x0a, 0x3d,
  0x2b, 0xe8, 0x8a, 0xbd, 0x5f, 0xc1, 0x28, 0xbe, 0x98, 0x24, 0x4c, 0xbe,
  0x0e, 0xc7, 0x3e, 0x3e, 0x59, 0x93, 0x34, 0xbd, 0x00, 0x7c, 0x3d, 0xbe,
  0x29, 0x9e, 0x60, 0x3e, 0x16, 0xca, 0xc9, 0xbd, 0xe5, 0x82, 0x95, 0x3d,
  0xc9, 0x50, 0xb1, 0xbe, 0x85, 0x02, 0x9b, 0x3d, 0x41, 0xf8, 0x48, 0xbe,
  0xa1, 0xfe, 0x66, 0xbb, 0x0e, 0x0a, 0x8b, 0x3e, 0xa8, 0x9a, 0x23, 0xbe,
  0x82, 0x1b, 0x9c, 0xbe, 0x14, 0x89, 0x36, 0x3e, 0xe2, 0xa9, 0xcf, 0x3e,
  0xfc, 0x74, 0x58, 0xbd, 0x41, 0x8f, 0x7a, 0x3e, 0xa5, 0xa9, 0x01, 0x3f,
  0xb4, 0x76, 0xa0, 0xbd, 0x23, 0x9b, 0x13, 0xbe, 0x45, 0x9c, 0x22, 0x3e,
  0x41, 0x75, 0x00, 0x3f, 0x70, 0x3f, 0x88, 0x3e, 0xf3, 0xf8, 0xa1, 0xbd,
  0x97, 0x93, 0xc0, 0xbd, 0x35, 0x8d, 0x02, 0xbe, 0xaa, 0x44, 0xd6, 0x3d,
  0x0c, 0x29, 0x7d, 0xbe, 0xc4, 0x5f, 0x23, 0xbe, 0xdc, 0x76, 0x2e, 0xbe,
  0x8a, 0xbb, 0x18, 0x3e, 0x11, 0x20, 0xda, 0xbd, 0x89, 0xcc, 0xa2, 0xbc,
  0xaf, 0x8f, 0x5d, 0x3d, 0x68, 0x64, 0x6e, 0x3e, 0x53, 0x08, 0xb3, 0xbd,
  0xf5, 0x51, 0xce, 0xbd, 0x48, 0x21, 0x75, 0xbd, 0xb7, 0x96, 0xb9, 0xbd,
  0x17, 0x4e, 0x6c, 0xbe, 0x5e, 0x40, 0x6d, 0xbe, 0x45, 0x00, 0x25, 0xbe,
  0xc2, 0x9c, 0xa0, 0xbd, 0x49, 0xf5, 0x0e, 0x3e, 0x00, 0x82, 0x47, 0x3e,
  0xf0, 0x7d, 0xa7, 0x3c, 0xd6, 0x28, 0x59, 0xbb, 0x2d, 0xd4, 0x59, 0xbe,
  0xb0, 0x2d, 0x3f, 0xbe, 0x93, 0xcb, 0x1d, 0xbd, 0x98, 0x7e, 0x7f, 0xbd,
  0x40, 0x11, 0x8e, 0x3e, 0xb0, 0x39, 0x61, 0x3e, 0x5f, 0x6c, 0xcc, 0x3a,
  0xad, 0x58, 0xee, 0xbd, 0xb9, 0x11, 0x3d, 0xbb, 0xfb, 0x92, 0x8b, 0xbe,
  0x6c, 0x28, 0x4a, 0xbe, 0x6a, 0x68, 0x21, 0xbe, 0x9e, 0xfa, 0x31, 0x3e,
  0x0f, 0xaf, 0xbd, 0x3d, 0xb5, 0x56, 0x7f, 0xbd, 0xd3, 0x95, 0x52, 0xbd,
  0x93, 0xa7, 0x29, 0x3d, 0x77, 0x95, 0x87, 0x3d, 0x6e, 0x3e, 0xa0, 0x3e,
  0xca, 0x8f, 0x15, 0x3e, 0xfa, 0x03, 0x54, 0x3e, 0xbf, 0xf9, 0x89, 0xbd,
  0xcb, 0x54, 0xf3, 0x3d, 0x59, 0x3a, 0x22, 0xbd, 0x94, 0xde, 0x2b, 0xbe,
  0xc0, 0x3b, 0xaf, 0xbd, 0x1b, 0xf0, 0x91, 0x3d, 0x7a, 0xfc, 0xa1, 0x3d,
  0x24, 0x23, 0xa2, 0xbd, 0x02, 0x34, 0x3e, 0xbe, 0xa1, 0x24, 0x0c, 0xbe,
  0xe6, 0xef, 0x25, 0xbe, 0xd9, 0x14, 0xac, 0xbd, 0xa2, 0x3a, 0x9b, 0xbe,
  0x90, 0x30, 0x00, 0xbd, 0x0e, 0x9d, 0x99, 0xbd, 0x99, 0x61, 0x41, 0xbe,
  0x5c, 0x23, 0x17, 0x3d, 0x64, 0xdf, 0x1f, 0x3e, 0x93, 0xae, 0xc7, 0xbd,
  0x91, 0x04, 0xe7, 0xbd, 0xc1, 0x23, 0xdb, 0x3c, 0x05, 0x3d, 0xc8, 0x3d,
  0xa4, 0xc7, 0x40, 0x3d, 0xd2, 0x10, 0x84, 0xbb, 0xde, 0xb9, 0xb6, 0xbd,
  0x1e, 0xdd, 0xff, 0x3e, 0x25, 0x98, 0x28, 0x3e, 0xb3, 0xe8, 0xa6, 0x3b,
  0x21, 0x70, 0xdf, 0x3c, 0x69, 0x48, 0x62, 0xbe, 0xd3, 0x0e, 0x54, 0x3e,
  0x57, 0xb4, 0x27, 0x3f, 0x50, 0xde, 0x27, 0x3e, 0xce, 0xdf, 0xed, 0x3b,
  0xf7, 0x2b, 0x43, 0x3e, 0x01, 0xa3, 0x6b, 0x3d, 0x09, 0x99, 0x7f, 0xbe,
  0x0d, 0x62, 0x6f, 0x3d, 0x66, 0x70, 0x6d, 0xbe, 0xde, 0x66, 0x09, 0xbe,
  0x44, 0x98, 0x39, 0x3e, 0x34, 0x78, 0xdf, 0x3e, 0xeb, 0xe0, 0x85, 0x3e,
  0x27, 0xac, 0x57, 0xbe, 0x85, 0x18, 0x29, 0x3e, 0x03, 0x15, 0x8d, 0x3b,
  0x44, 0xaa, 0x31, 0x3e, 0x01, 0x71, 0x0c, 0xbd, 0x6d, 0x1e, 0x4e, 0x3e,
  0x65, 0x65, 0x53, 0xbe, 0x6a, 0x2c, 0x80, 0xbc, 0x7f, 0x4c, 0xb9, 0xbd,
  0x28, 0x56, 0x29, 0x3c, 0x66, 0x96, 0xdc, 0xbe, 0x54, 0xfc, 0x96, 0xbc,
  0xb7, 0x57, 0xd6, 0xbd, 0x35, 0x7c, 0xbd, 0xb9, 0x41, 0x42, 0x91, 0x3d,
  0xf6, 0x86, 0x3d, 0x3e, 0x7d, 0x09, 0x0d, 0xbe, 0x90, 0x67, 0x44, 0xbe,
  0x0c, 0x37, 0x3c, 0xbc, 0x00, 0x3c, 0x00, 0x3e, 0x54, 0x65, 0x09, 0xbe,
  0x9b, 0x29, 0x3b, 0x3e, 0x68, 0x43, 0x9e, 0xbd, 0xbc, 0x47, 0xae, 0xbe,
  0x87, 0x96, 0xed, 0x3d, 0xb5, 0xab, 0x8e, 0xbe, 0x4a, 0x2b, 0xd0, 0xbd,
  0x62, 0xcd, 0x36, 0x3e, 0x2b, 0x60, 0x15, 0x3e, 0x93, 0x51, 0x4c, 0xbd,
  0x6f, 0xc7, 0x4b, 0xbe, 0x9f, 0x09, 0x51, 0xbd, 0xc1, 0x89, 0xa0, 0xbd,
  0xc6, 0x10, 0xe1, 0x3d, 0x73, 0x66, 0x47, 0xbe, 0x61, 0xbc, 0x04, 0xbd,
  0x7f, 0x18, 0xd3, 0x3e, 0xee, 0x04, 0xb8, 0xbd, 0xe7, 0x04, 0xf3, 0xbd,
  0xdc, 0xaa, 0x0f, 0x3e, 0x6b, 0xd9, 0x8c, 0x3e, 0x76, 0x8d, 0x73, 0xbe,
  0xc3, 0x7f, 0x02, 0xbc, 0xcf, 0x97, 0x84, 0x3d, 0x49, 0xd7, 0x23, 0xbc,
  0x30, 0x92, 0x57, 0xbe, 0x92, 0xa6, 0x02, 0x3e, 0x72, 0x71, 0x1c, 0xbe,
  0x8f, 0x42, 0x45, 0xbc, 0xdf, 0x70, 0x3a, 0xbd, 0x19, 0xe2, 0x15, 0xbb,
  0xa2, 0x46, 0xbb, 0x3a, 0x99, 0xbe, 0xaa, 0xbd, 0x95, 0xa2, 0x78, 0x3e,
  0xe5, 0x20, 0xab, 0x3d, 0x01, 0xce, 0x24, 0x3e, 0x98, 0x87, 0x95, 0xbd,
  0xda, 0x2d, 0xca, 0x3d, 0xcf, 0xff, 0x24, 0x3e, 0x23, 0xb5, 0xcc, 0xbd,
  0xb8, 0x2a, 0x0e, 0xbe, 0x70, 0x58, 0x8d, 0x3e, 0x7c, 0x5a, 0x9c, 0xbd,
  0x9f, 0x9b, 0x0e, 0xbe, 0xb5, 0x17, 0x0e, 0xbd, 0x89, 0x9d, 0x3d, 0xbe,
  0x13, 0xea, 0x61, 0x3e, 0x23, 0x54, 0xa8, 0xbd, 0x60, 0xf8, 0xfc, 0x3d,
  0x82, 0xf3, 0x0a, 0x3b, 0xc8, 0x54, 0x97, 0x3d, 0x26, 0xf5, 0x11, 0x3e,
  0x80, 0xcf, 0x52, 0xbc, 0xd6, 0x48, 0xb9, 0xbd, 0x60, 0x52, 0x32, 0xbe,
  0x1b, 0xe2, 0x40, 0x3a, 0x85, 0x67, 0x82, 0xbe, 0xa1, 0xb7, 0x7f, 0xbe,
  0xe1, 0x3b, 0x80, 0xbe, 0x67, 0xa2, 0x61, 0xbe, 0x07, 0xa1, 0x31, 0xbe,
  0x1e, 0x19, 0x18, 0xbe, 0x75, 0x71, 0x86, 0xbe, 0x63, 0x01, 0xfb, 0x3d,
  0x07, 0xa1, 0x12, 0x3e, 0xee, 0xbc, 0xfc, 0xbd, 0x73, 0xe1, 0xf2, 0x3d,
  0xb0, 0x07, 0x02, 0x3e, 0x2b, 0x3e, 0x6e, 0xbe, 0x6c, 0xdb, 0x70, 0x3e,
  0xcc, 0x99, 0x53, 0xbc, 0xdc, 0xfa, 0x92, 0xbc, 0x9e, 0x96, 0x1f, 0x3e,
  0xcf, 0xb2, 0xe1, 0x3c, 0x23, 0x94, 0x50, 0xbe, 0xbe, 0x57, 0x1b, 0x3e,
  0xb6, 0x24, 0x0c, 0xbe, 0x32, 0xcf, 0x00, 0xbd, 0xac, 0x59, 0x6d, 0x3e,
  0xad, 0xf7, 0x43, 0x3e, 0xe7, 0x04, 0x00, 0x3d, 0xa4, 0x02, 0x04, 0x3e,
  0xfa, 0x99, 0x01, 0xbe, 0xac, 0x85, 0x65, 0x3e, 0x3c, 0x09, 0x4c, 0xbe,
  0x41, 0xba, 0x37, 0x3e, 0x19, 0xe7, 0x23, 0x3c, 0x4e, 0xa5, 0xae, 0xbd,
  0x9e, 0xe7, 0x42, 0x3d, 0x54, 0x33, 0x61, 0x3d, 0x4d, 0xac, 0x0e, 0xbe,
  0xc6, 0x11, 0x14, 0xbe, 0x19, 0xea, 0x0b, 0x3f, 0xfb, 0x5a, 0x06, 0x3e,
  0xf9, 0xf0, 0x6b, 0x3b, 0x39, 0xab, 0x2b, 0xbe, 0x09, 0x67, 0x84, 0xbe,
  0xa7, 0x34, 0x78, 0xbd, 0xae, 0xce, 0x18, 0x3f, 0xdc, 0x0b, 0x5f, 0x3f,
  0xd1, 0xa6, 0xc1, 0xbb, 0xa4, 0x4b, 0x12, 0xbe, 0x97, 0x25, 0x1c, 0x3b,
  0x28, 0x22, 0x8f, 0x3e, 0x2b, 0x3f, 0xb2, 0x3e, 0xb0, 0x45, 0x05, 0x3e,
  0x71, 0x78, 0x3a, 0xbe, 0x6c, 0x0b, 0x59, 0x3d, 0xf2, 0x91, 0xf5, 0x3d,
  0x04, 0x0f, 0xe3, 0x3e, 0x22, 0x8a, 0xb8, 0xbe, 0x3b, 0x36, 0xb2, 0xbd,
  0x8e, 0xeb, 0x03, 0x3e, 0x47, 0xb1, 0x56, 0x3e, 0x0b, 0xa5, 0x32, 0x3e,
  0xc8, 0x56, 0x4d, 0xbe, 0x1f, 0xbd, 0xa5, 0xbe, 0x78, 0x3b, 0x81, 0xbe,
  0xad, 0x61, 0x4a, 0x3e, 0x44, 0x3d, 0xf0, 0x3b, 0x5b, 0xc2, 0xe8, 0xbe,
  0x0f, 0xc5, 0xd8, 0xbd, 0xf4, 0x76, 0x86, 0x3e, 0xf8, 0xdd, 0x3f, 0x3e,
  0x85, 0x11, 0x83, 0xbd, 0xf9, 0x7c, 0xa2, 0xbe, 0x24, 0xd1, 0xa5, 0xbe,
  0xb9, 0x97, 0xa7, 0xbe, 0x7a, 0xd2, 0x5d, 0xbe, 0x51, 0x28, 0xae, 0x3e,
  0xf5, 0xc3, 0x4f, 0x3e, 0xae, 0x68, 0x0d, 0xbe, 0x09, 0x05, 0x08, 0xbe,
  0x8e, 0x10, 0x30, 0xbe, 0x82, 0xe8, 0xc0, 0x3d, 0xdc, 0x95, 0x0a, 0xbe,
  0xc6, 0x07, 0x57, 0xbd, 0x84, 0x4e, 0x7c, 0xbe, 0x35, 0x2b, 0x93, 0x3e,
  0xdd, 0x8b, 0x5f, 0x3e, 0x28, 0x74, 0xff, 0x3d, 0x13, 0x90, 0x3c, 0x3d,
  0x10, 0x1f, 0x73, 0x3d, 0x1d, 0x3d, 0x92, 0x3c, 0x75, 0x59, 0xd3, 0xbe,
  0xf7, 0x8f, 0xbd, 0x3d, 0xb5, 0x1f, 0x4d, 0x3e, 0x33, 0xb1, 0x5a, 0xbd,
  0x50, 0x7d, 0x0e, 0xbd, 0x9b, 0x26, 0x25, 0x3d, 0x0f, 0x46, 0x3c, 0x3e,
  0x24, 0xc2, 0x8b, 0xbe, 0x8a, 0x8e, 0x3d, 0xbe, 0x86, 0xec, 0xb7, 0x3d,
  0xe9, 0xf2, 0x4e, 0xbd, 0x0f, 0x18, 0xbf, 0xbd, 0x84, 0x56, 0xc3, 0x3a,
  0x46, 0x30, 0x16, 0x3e, 0xd6, 0x19, 0x62, 0x3e, 0x53, 0xe7, 0xf3, 0x3d,
  0xf5, 0x57, 0xa5, 0x3d, 0x93, 0x56, 0x54, 0xbd, 0x80, 0x44, 0x1e, 0x3e,
  0x78, 0x75, 0x85, 0xbe, 0xe1, 0x79, 0xfc, 0xba, 0x86, 0xb3, 0x8b, 0xbd,
  0xb1, 0x65, 0x5e, 0xbe, 0x96, 0x84, 0x84, 0xbe, 0xac, 0x25, 0x2b, 0xbe,
  0x06, 0x39, 0x8c, 0xbe, 0xf6, 0xf2, 0x2c, 0xbe, 0x04, 0x37, 0x86, 0xbe,
  0xf7, 0x15, 0xda, 0x3d, 0x5e, 0xa7, 0x9b, 0xbc, 0x1c, 0xbe, 0xd9, 0x3c,
  0xc1, 0x8e, 0x75, 0x3e, 0x94, 0xf9, 0x12, 0x3d, 0xca, 0x8a, 0x6e, 0x3e,
  0x82, 0x24, 0xf8, 0xbd, 0x0c, 0xbb, 0xbd, 0xbd, 0xd3, 0x77, 0xdb, 0xbd,
  0xd2, 0x84, 0xbf, 0x3d, 0x55, 0x8c, 0x38, 0xbe, 0xa8, 0x1b, 0x4a, 0xbe,
  0x5d, 0x49, 0xeb, 0x3d, 0x23, 0x5d, 0xb6, 0xbd, 0x21, 0xe3, 0xf7, 0x3d,
  0xeb, 0xed, 0x96, 0x3e, 0x72, 0xdf, 0x98, 0x3e, 0x3c, 0x61, 0x89, 0x3d,
  0xf8, 0x94, 0xbe, 0x3e, 0xf4, 0x94, 0x5a, 0x3d, 0x06, 0x4c, 0x68, 0xbb,
  0x98, 0xa3, 0x05, 0xbd, 0xdb, 0x1d, 0xe2, 0xbd, 0xc4, 0x30, 0x5c, 0x3e,
  0xc8, 0x99, 0x51, 0x3e, 0x60, 0xb7, 0xa5, 0x3e, 0x73, 0xe2, 0x92, 0xbd,
  0x7e, 0x01, 0xa2, 0xbd, 0x91, 0x8e, 0xf3, 0x3d, 0xa0, 0x66, 0xad, 0xbd,
  0x0e, 0xd4, 0x1b, 0xbe, 0x4f, 0x3c, 0xd6, 0xbd, 0x96, 0xd4, 0x98, 0x3d,
  0x66, 0x0c, 0x19, 0xbe, 0x15, 0x16, 0xb0, 0xbd, 0xf8, 0xd0, 0x6a, 0x3c,
  0xc1, 0xb9, 0x55, 0xbe, 0xad, 0xfe, 0x91, 0x3c, 0xec, 0xaf, 0x9c, 0x3c,
  0x99, 0x55, 0xe8, 0xbd, 0xbe, 0x6a, 0x30, 0xbb, 0xf8, 0xc8, 0x03, 0xbc,
  0xd7, 0xbc, 0xc4, 0xbd, 0x48, 0x4a, 0x9e, 0xbd, 0x51, 0xeb, 0x72, 0xbe,
  0xa8, 0x28, 0x05, 0xbe, 0x19, 0x14, 0x1f, 0xbe, 0xe6, 0x24, 0xe2, 0xbc,
  0x02, 0xaa, 0x24, 0xbe, 0xe3, 0x96, 0x27, 0x3e, 0x08, 0x40, 0x28, 0x3e,
  0x1b, 0xc1, 0x32, 0xbe, 0x2a, 0x6d, 0x34, 0x3d, 0x65, 0x36, 0xa7, 0xba,
  0x01, 0x07, 0xac, 0x3a, 0x8b, 0xaf, 0x94, 0xbc, 0xef, 0xe0, 0x28, 0x3d,
  0x19, 0xa9, 0x29, 0x3e, 0xcd, 0xf6, 0x04, 0x3e, 0xc2, 0xca, 0xee, 0xbd,
  0xbf, 0xd1, 0xcd, 0xbd, 0x54, 0xfb, 0xab, 0xbd, 0x72, 0x98, 0xa7, 0x3d,
  0xa8, 0xb6, 0xb4, 0x3c, 0x16, 0xe8, 0xa5, 0x3e, 0xd2, 0x50, 0x82, 0x3e,
  0x19, 0x0b, 0x13, 0x3d, 0x20, 0x11, 0xdf, 0x3d, 0x5f, 0x5b, 0x04, 0xbe,
  0xdd, 0xef, 0x04, 0x3d, 0xce, 0x8c, 0xf6, 0xbd, 0x26, 0x9c, 0x96, 0x3c,
  0xda, 0x9a, 0xdc, 0x3d, 0xf7, 0xb6, 0xa2, 0x3e, 0x49, 0x14, 0xfb, 0x3d,
  0x46, 0x25, 0x95, 0x3e, 0xcb, 0x2a, 0x54, 0x3e, 0x60, 0x15, 0x66, 0xbd,
  0xfb, 0x4c, 0x3b, 0x3d, 0xd6, 0x6b, 0x1b, 0x3d, 0x46, 0x8e, 0x3f, 0xbd,
  0x85, 0x46, 0x4e, 0xbd, 0xfa, 0x96, 0x94, 0xbd, 0x53, 0xfd, 0x15, 0x3e,
  0xa5, 0x3b, 0x7b, 0x3d, 0x80, 0xef, 0xdc, 0xbd, 0xfc, 0x83, 0x3a, 0xbe,
  0xb6, 0x5b, 0x1c, 0xbe, 0x19, 0x89, 0x15, 0x3c, 0x2d, 0x56, 0x68, 0x3e,
  0x27, 0x04, 0x24, 0x3c, 0x37, 0x2a, 0x8e, 0xbc, 0x85, 0x1a, 0x6a, 0x3e,
  0x69, 0x1e, 0xae, 0xbc, 0x59, 0xda, 0x94, 0xbe, 0xd0, 0x87, 0x6e, 0x3d,
  0x1a, 0xdd, 0x8c, 0xbe, 0xde, 0x7e, 0xff, 0xbd, 0xd3, 0x1c, 0x82, 0xbe,
  0xd1, 0xb5, 0x8e, 0xbe, 0x06, 0x60, 0x0e, 0xbe, 0xa9, 0xc7, 0x4e, 0x3e,
  0xe8, 0xb0, 0x90, 0xbd, 0x3d, 0x6a, 0x1f, 0x3e, 0x8d, 0x59, 0xa7, 0x3d,
  0x79, 0x23, 0x00, 0xbe, 0xe9, 0xdc, 0x1b, 0x3e, 0xce, 0xa5, 0x09, 0x3d,
  0x6c, 0x75, 0xf0, 0x3d, 0xb9, 0xd2, 0x2f, 0x3e, 0xf0, 0xad, 0xeb, 0x3d,
  0x3c, 0x6e, 0x81, 0x3e, 0x76, 0x39, 0xaf, 0x3e, 0x25, 0x12, 0xf4, 0x3c,
  0xe3, 0x7c, 0x2d, 0xbd, 0x06, 0x78, 0xa2, 0x3e, 0xa4, 0xa3, 0x8a, 0xbd,
  0x1e, 0xfc, 0x20, 0xbe, 0xe8, 0x82, 0x97, 0x3d, 0x35, 0xfd, 0x43, 0xbe,
  0x35, 0x10, 0x2f, 0xbd, 0x44, 0x70, 0xac, 0xbe, 0x08, 0xd7, 0x25, 0xbc,
  0x33, 0x74, 0x7b, 0xbe, 0x67, 0xcf, 0x2e, 0xbd, 0xa8, 0xd4, 0x55, 0x3e,
  0xe8, 0xb2, 0x83, 0x3e, 0xe3, 0x2d, 0xfc, 0xbd, 0x34, 0xf3, 0x31, 0x3e,
  0xd8, 0xe3, 0x93, 0x3e, 0xe1, 0x1b, 0xa5, 0xbd, 0x89, 0x04, 0xb6, 0xbd,
  0xf1, 0x2f, 0x94, 0x3d, 0x8e, 0x0d, 0x88, 0x3e, 0xb2, 0x27, 0x63, 0x3d,
  0xbd, 0x90, 0x11, 0x3e, 0x2c, 0x55, 0x43, 0x3e, 0xc6, 0x73, 0x8d, 0xbc,
  0xd6, 0xc9, 0xcc, 0xbd, 0x00, 0xab, 0x87, 0x3e, 0x11, 0xc6, 0xf5, 0x3d,
  0x89, 0xa1, 0x26, 0xbe, 0x11, 0xe3, 0xaf, 0x3d, 0xe4, 0x0b, 0x3e, 0x3e,
  0x49, 0xbe, 0x16, 0xbd, 0xf7, 0x08, 0x25, 0x3e, 0x72, 0x35, 0xdf, 0xbc,
  0x56, 0x7a, 0x23, 0xbe, 0x44, 0x40, 0x44, 0x3d, 0x2d, 0x43, 0x83, 0x3d,
  0xbc, 0x96, 0x5a, 0x3e, 0x48, 0x40, 0x4a, 0x3c, 0xb4, 0xdc, 0x02, 0xbc,
  0xe3, 0x67, 0xfc, 0x3d, 0x01, 0x93, 0x02, 0xbe, 0x0a, 0xd1, 0x9d, 0x3d,
  0xf4, 0xaf, 0xa7, 0x3e, 0x3d, 0xd4, 0x4c, 0x3d, 0x2c, 0x09, 0x22, 0x3e,
  0xa2, 0xd2, 0xa8, 0x3d, 0xd8, 0x23, 0x9e, 0xbc, 0xb1, 0xa2, 0x41, 0x3e,
  0x86, 0x6e, 0x38, 0x3e, 0x5f, 0xd5, 0xed, 0x3d, 0xbe, 0x78, 0x8a, 0xbd,
  0x66, 0xf8, 0x74, 0x39, 0x9e, 0x6a, 0x16, 0x3d, 0x50, 0xc7, 0x1d, 0xbe,
  0xc3, 0x40, 0xf8, 0x3d, 0x4c, 0x40, 0x85, 0xbe, 0xda, 0x80, 0xdb, 0x3d,
  0x0e, 0x4d, 0x4b, 0xbe, 0xb8, 0xdb, 0x09, 0x3e, 0x0a, 0xbb, 0x0b, 0x3e,
  0xd9, 0x72, 0x51, 0x3e, 0xdb, 0xba, 0x0d, 0x3e, 0x59, 0x86, 0x29, 0x3e,
  0x52, 0x22, 0xde, 0x3d, 0x05, 0xc8, 0xbe, 0x3d, 0x4b, 0xcb, 0x5a, 0x3d,
  0x8f, 0x0c, 0xaf, 0x3e, 0xcd, 0x60, 0x6d, 0x3c, 0x99, 0x79, 0x87, 0xbe,
  0x90, 0x1e, 0x63, 0x3d, 0xd7, 0xbc, 0xab, 0x3d, 0xa7, 0x75, 0x7f, 0xbd,
  0xe9, 0x39, 0xc7, 0xbd, 0x86, 0x47, 0x18, 0x3e, 0x66, 0x36, 0xd1, 0x3d,
  0xc7, 0x57, 0xf3, 0x3d, 0x9a, 0x42, 0x9e, 0x3e, 0x6b, 0xaf, 0x27, 0x3e,
  0xa0, 0xc0, 0xd4, 0x3d, 0xb8, 0x50, 0x23, 0x3e, 0xc1, 0x93, 0x67, 0x3d,
  0x1a, 0x0f, 0x2d, 0x3e, 0xcf, 0xf5, 0x6f, 0x3e, 0x7a, 0x78, 0x14, 0x3e,
  0x27, 0x68, 0xce, 0xbd, 0xe3, 0xc3, 0xa6, 0xba, 0x29, 0xbe, 0x17, 0xbe,
  0xd5, 0xed, 0xd0, 0xbb, 0xcb, 0x4f, 0xae, 0x3c, 0x1e, 0xd2, 0xc2, 0x3c,
  0x11, 0x4a, 0x5c, 0xbe, 0x11, 0x72, 0x4d, 0x3e, 0x2e, 0x6d, 0x9a, 0xbe,
  0x02, 0xe7, 0xa6, 0xbd, 0xa1, 0x3a, 0xdd, 0xbd, 0x5f, 0x66, 0xda, 0xbc,
  0x82, 0xc1, 0x92, 0x3d, 0xc4, 0x11, 0x2c, 0x3e, 0xc8, 0xc4, 0x88, 0x3d,
  0xa0, 0x78, 0x4c, 0xbd, 0x81, 0x6f, 0xd1, 0xbd, 0x0e, 0x08, 0x1b, 0xbe,
  0x6a, 0x76, 0x8f, 0x3d, 0x15, 0x5e, 0x91, 0x3e, 0x6e, 0x35, 0x95, 0x3d,
  0xe3, 0xe1, 0x93, 0xbe, 0xe9, 0x34, 0x15, 0x3d, 0x84, 0x22, 0x81, 0x3d,
  0xd9, 0xa0, 0xc3, 0xbd, 0xf5, 0x5e, 0x88, 0xbe, 0x08, 0x89, 0xc5, 0xbc,
  0x90, 0x8b, 0xeb, 0xbd, 0x5a, 0x77, 0x31, 0x3d, 0x4f, 0x7f, 0x2c, 0x3d,
  0xa6, 0xf5, 0x2f, 0x3d, 0x44, 0xe0, 0x4a, 0x3e, 0x37, 0xd3, 0x64, 0xbe,
  0x37, 0xe6, 0x87, 0x3e, 0x1f, 0xad, 0xc5, 0x3c, 0x7a, 0xdb, 0x1f, 0x3e,
  0x0e, 0xbf, 0xd6, 0xbd, 0x75, 0xc0, 0xc1, 0x3e, 0xf9, 0x3a, 0x02, 0xbe,
  0xb1, 0x61, 0xcf, 0xbd, 0xd4, 0xad, 0x1f, 0x3e, 0x0b, 0x6c, 0xba, 0x3d,
  0xec, 0x5e, 0x62, 0x3c, 0x51, 0xf3, 0xbf, 0x3d, 0x38, 0x07, 0x04, 0x3e,
  0xd0, 0xb7, 0xa8, 0x3d, 0xad, 0x81, 0xc3, 0xbd, 0x46, 0xaf, 0x20, 0xbd,
  0x95, 0x7a, 0x20, 0x3e, 0x6e, 0x84, 0xe6, 0xbd, 0x50, 0x3b, 0x80, 0x3e,
  0x94, 0x1a, 0xee, 0x3d, 0xaf, 0x66, 0xa3, 0xbd, 0xc3, 0x3a, 0x92, 0xbe,
  0xd5, 0x76, 0xd3, 0x3d, 0x4b, 0x24, 0x05, 0xbe, 0x5f, 0xf8, 0xb9, 0xbd,
  0xcd, 0xc4, 0xa0, 0xbe, 0x9d, 0x85, 0xbf, 0x3d, 0x84, 0xbf, 0x54, 0xbe,
  0xc6, 0xe7, 0x1f, 0xbe, 0x8a, 0xfe, 0x1d, 0xbc, 0xff, 0x8a, 0xc1, 0x3d,
  0xd1, 0xa4, 0xd3, 0x3c, 0x02, 0x2b, 0x9c, 0xbd, 0x06, 0x50, 0x38, 0xbe,
  0xc1, 0xcd, 0x1b, 0x3e, 0xcb, 0xf1, 0x1f, 0x3e, 0xea, 0xc9, 0x41, 0x3e,
  0xc3, 0x09, 0x81, 0x3d, 0x67, 0x75, 0x1d, 0x3e, 0x28, 0xf9, 0x29, 0xbe,
  0xe5, 0xdd, 0x5f, 0xbe, 0x05, 0xa0, 0xb4, 0xbd, 0xb6, 0x66, 0x0d, 0xbd,
  0xf6, 0x6a, 0x79, 0xbe, 0xe4, 0x43, 0x86, 0xbd, 0x76, 0x37, 0x50, 0xbc,
  0xc1, 0x91, 0x12, 0xbe, 0x67, 0xad, 0xd7, 0x3d, 0x8c, 0x59, 0x65, 0x3e,
  0x9f, 0x60, 0x14, 0x3e, 0x22, 0xf8, 0xa0, 0x3d, 0x94, 0x19, 0x2e, 0x3d,
  0x47, 0x94, 0x2c, 0xbe, 0x04, 0x69, 0xf3, 0x3c, 0x2b, 0xfd, 0xd3, 0x3b,
  0xed, 0x26, 0xc6, 0xbd, 0x8b, 0x9d, 0x4c, 0xbd, 0x13, 0xd9, 0xd2, 0xbd,
  0x69, 0xd5, 0x6e, 0xbe, 0x05, 0x18, 0x37, 0xbd, 0x0f, 0x69, 0x3c, 0xbe,
  0x70, 0xef, 0x92, 0xbd, 0xde, 0x6e, 0x8d, 0x3d, 0xe0, 0x7f, 0xd3, 0x3c,
  0xa2, 0xec, 0x65, 0xbe, 0xab, 0x0e, 0xd3, 0xbd, 0x09, 0xdc, 0x2e, 0xbe,
  0x3e, 0x3e, 0x6f, 0xbe, 0x49, 0xd2, 0x7f, 0x3e, 0x02, 0x64, 0xa4, 0xbd,
  0x42, 0x7e, 0x7d, 0xbe, 0x16, 0x1d, 0x0b, 0xbe, 0xca, 0x6b, 0x02, 0x3e,
  0x93, 0x95, 0xea, 0x3d, 0x41, 0x77, 0xc0, 0xbd, 0xfe, 0xc3, 0x96, 0xbd,
  0x1d, 0x64, 0x23, 0xbe, 0x30, 0xcb, 0x9b, 0x3b, 0x7a, 0x51, 0xc5, 0x3d,
  0x4d, 0x8a, 0x4f, 0x3c, 0xa8, 0x4c, 0xe4, 0x3c, 0xdf, 0xb6, 0x66, 0xbc,
  0x36, 0xe2, 0xbc, 0xbc, 0x14, 0xe7, 0xba, 0x3d, 0xc9, 0x9f, 0x4c, 0xbe,
  0x05, 0xa0, 0x22, 0xbd, 0x44, 0xdf, 0x10, 0xbf, 0x7f, 0x45, 0x47, 0xbe,
  0x81, 0xf7, 0x49, 0xbe, 0x19, 0x6c, 0x89, 0x3c, 0xc4, 0x41, 0x57, 0x3e,
  0x99, 0x67, 0xc6, 0x3d, 0x74, 0x4a, 0xf3, 0xbc, 0xae, 0xc2, 0x3c, 0x3d,
  0x83, 0xbc, 0xc1, 0xbb, 0xc9, 0xe8, 0xa7, 0x3d, 0x80, 0x82, 0x41, 0x3d,
  0x02, 0x3f, 0x54, 0xbd, 0x7a, 0x92, 0x73, 0xbd, 0x8f, 0x27, 0x98, 0x3d,
  0xaf, 0x02, 0xb2, 0x3e, 0x98, 0x5e, 0x90, 0xbd, 0x80, 0xb1, 0x8f, 0xbe,
  0xd4, 0x2f, 0x1e, 0xbe, 0xc7, 0x34, 0x58, 0x3e, 0x4a, 0x7e, 0x99, 0xbd,
  0x8f, 0xb8, 0x85, 0xbe, 0x2d, 0x63, 0x20, 0xbe, 0x3c, 0xe4, 0x7c, 0xbd,
  0x23, 0x97, 0x45, 0x3e, 0x87, 0x4e, 0x81, 0xbd, 0x43, 0xb1, 0x2b, 0xbe,
  0xa3, 0xb1, 0xaa, 0x3d, 0x46, 0xf8, 0x29, 0x3e, 0xde, 0x37, 0xd8, 0x3d,
  0x0e, 0x5f, 0xcf, 0x3c, 0xdf, 0xe6, 0xec, 0x3c, 0xd0, 0x49, 0xff, 0x3d,
  0xb1, 0x38, 0x54, 0x3e, 0xac, 0x2f, 0x0c, 0x3c, 0x4a, 0x77, 0x94, 0xbd,
  0x23, 0x05, 0x13, 0x3e, 0xd9, 0xaa, 0x6c, 0x3c, 0xec, 0x06, 0x0a, 0x3e,
  0x7c, 0x24, 0x00, 0xbe, 0xbd, 0xb7, 0x2b, 0x3d, 0xef, 0x39, 0x8e, 0x3e,
  0x8a, 0xba, 0x39, 0x3e, 0x71, 0xe5, 0x80, 0x3d, 0x95, 0x37, 0xf9, 0x3d,
  0x76, 0xda, 0x17, 0xbe, 0xbf, 0xe2, 0x73, 0x3d, 0x0d, 0x74, 0x91, 0xbd,
  0x8f, 0x93, 0x04, 0x3e, 0x45, 0x7a, 0xc9, 0xbe, 0xfc, 0x8c, 0x6e, 0xbe,
  0x79, 0x8d, 0x72, 0x3e, 0x16, 0xa6, 0x89, 0x3e, 0x74, 0xf6, 0x08, 0x3e,
  0xe1, 0x75, 0xc8, 0x3d, 0x68, 0x72, 0x5d, 0x3e, 0xa4, 0xbc, 0xc4, 0x3e,
  0x44, 0xeb, 0x90, 0x3e, 0x70, 0x03, 0x94, 0x3e, 0xe6, 0xec, 0x07, 0x3e,
  0x15, 0xab, 0x0b, 0x3e, 0xf6, 0x0e, 0x42, 0xbe, 0x0c, 0xbd, 0xed, 0xbd,
  0x3a, 0x75, 0x18, 0x3d, 0xc7, 0x1a, 0x3d, 0xbd, 0xaf, 0x97, 0x48, 0xbd,
  0x1a, 0x16, 0x4f, 0x3e, 0x79, 0xf1, 0xa0, 0xbe, 0x8e, 0x91, 0x12, 0xbe,
  0x44, 0xf2, 0x14, 0xbe, 0x89, 0xfa, 0x30, 0x3e, 0xed, 0x81, 0xcc, 0x3d,
  0xab, 0x6b, 0xd2, 0x3c, 0xf7, 0x2f, 0x19, 0x3e, 0x21, 0xd0, 0x52, 0x3e,
  0xa6, 0x69, 0x92, 0x3e, 0x87, 0x6b, 0x17, 0xbe, 0x10, 0xfe, 0xa1, 0x3e,
  0xa0, 0x15, 0x9b, 0x3d, 0x9c, 0x41, 0x49, 0x3e, 0x2a, 0x9e, 0x68, 0x3e,
  0x09, 0x9f, 0x04, 0x3e, 0xf9, 0xce, 0xca, 0x3b, 0xab, 0x4f, 0xff, 0xbd,
  0x85, 0xf1, 0xc4, 0xbd, 0xcf, 0x8f, 0x00, 0xbe, 0xb8, 0x82, 0xb0, 0xbe,
  0xb6, 0x45, 0xd7, 0xbd, 0xbd, 0x73, 0x9f, 0xbc, 0xb6, 0x51, 0xe3, 0xbc,
  0x90, 0xf1, 0x7c, 0xbd, 0x82, 0x7d, 0x31, 0x3d, 0x0b, 0x54, 0x93, 0x3e,
  0x78, 0x55, 0x9c, 0x3e, 0x85, 0xe1, 0xaf, 0x3e, 0x0c, 0x30, 0x04, 0x3e,
  0x04, 0x91, 0xb8, 0x3d, 0x16, 0x97, 0x06, 0x3e, 0x95, 0xd9, 0x84, 0xbe,
  0x3a, 0xdb, 0xef, 0xbd, 0x68, 0xaf, 0xe5, 0xbd, 0x39, 0x05, 0xaf, 0xbd,
  0xac, 0xf9, 0xba, 0x3b, 0x61, 0x5f, 0x20, 0xbc, 0x2e, 0xc6, 0x1b, 0x3e,
  0xc8, 0xef, 0x24, 0x3e, 0x16, 0xf0, 0x0c, 0xbe, 0x74, 0x36, 0xe1, 0x3d,
  0xfd, 0xef, 0xb9, 0x3d, 0xba, 0xf3, 0x5d, 0x3e, 0xc6, 0xff, 0xa4, 0xbd,
  0xd8, 0xd0, 0x99, 0x3d, 0x26, 0x41, 0xe5, 0x3d, 0x8d, 0x6d, 0x4c, 0x3d,
  0xfc, 0x01, 0xc7, 0xbe, 0xc0, 0x23, 0x6f, 0x3e, 0x8a, 0x80, 0x53, 0xbe,
  0x80, 0xe2, 0xdb, 0x3d, 0x67, 0x2b, 0x5f, 0xbe, 0x76, 0xd3, 0x28, 0x3e,
  0x8c, 0x1f, 0x31, 0xbb, 0x0b, 0x64, 0x79, 0x3e, 0x26, 0xc2, 0x4a, 0x3e,
  0xa3, 0xc9, 0x6c, 0x3e, 0x98, 0x0a, 0x53, 0xbe, 0x4e, 0x2d, 0x00, 0x3d,
  0x80, 0x4b, 0xef, 0x3d, 0x76, 0x79, 0xba, 0x3d, 0x18, 0xe4, 0xd3, 0xba,
  0x4b, 0x27, 0x89, 0xbd, 0xa4, 0x21, 0x0d, 0xbe, 0x1e, 0x14, 0xa6, 0xbd,
  0xe3, 0xea, 0xb1, 0xbe, 0x8b, 0x0b, 0x59, 0x3e, 0x95, 0xe0, 0x87, 0x3b,
  0x98, 0x47, 0x0f, 0xbe, 0xd8, 0x9f, 0xd2, 0xbe, 0x9e, 0x80, 0x9d, 0xbe,
  0x60, 0xf5, 0x3a, 0xbe, 0x80, 0xed, 0xef, 0xbd, 0x6c, 0x1e, 0xcb, 0xbc,
  0xae, 0x25, 0xbf, 0x3d, 0x08, 0x31, 0x92, 0xbd, 0xbe, 0x8c, 0xc3, 0xbd,
  0x45, 0x03, 0xbe, 0xbd, 0xfa, 0x20, 0x38, 0x3e, 0x9d, 0xa0, 0x42, 0x3e,
  0x76, 0xf2, 0x3e, 0x3d, 0x55, 0xdd, 0x27, 0x3e, 0xa4, 0x0a, 0xe3, 0xbd,
  0x54, 0xf5, 0x88, 0xbe, 0x61, 0x37, 0x0e, 0xbe, 0x94, 0x1c, 0x8b, 0xbd,
  0xbf, 0xb6, 0xfa, 0xbd, 0x59, 0xa2, 0x6f, 0x3d, 0xcc, 0x51, 0x7c, 0xbd,
  0x8b, 0x32, 0x45, 0xbd, 0x20, 0x97, 0x26, 0x3e, 0x01, 0x4e, 0x85, 0xbd,
  0xe3, 0x0c, 0x25, 0x3d, 0x42, 0x7e, 0x10, 0xbe, 0x0d, 0xcd, 0xf5, 0xbb,
  0xf6, 0x5f, 0xba, 0x3d, 0x6e, 0x02, 0x5d, 0xbe, 0x71, 0x8b, 0x4f, 0xbd,
  0xcc, 0x34, 0x56, 0x3e, 0xb5, 0x36, 0x97, 0xbc, 0x72, 0x6b, 0x03, 0x3e,
  0xc4, 0xda, 0x4e, 0x3c, 0x0d, 0x43, 0x63, 0xbd, 0xfe, 0xbb, 0xa2, 0x3d,
  0xf7, 0xe8, 0x97, 0x3e, 0xc2, 0x9b, 0x64, 0x3e, 0x71, 0x04, 0x36, 0x3e,
  0x1e, 0x7c, 0xf9, 0xbc, 0x59, 0xa7, 0x4f, 0xbd, 0x90, 0x1c, 0xf5, 0x3d,
  0xaa, 0xad, 0x9d, 0x3c, 0x70, 0x0d, 0x30, 0x3e, 0xdd, 0x41, 0x84, 0xbd,
  0x59, 0xeb, 0x17, 0xbe, 0x2b, 0xd5, 0x0f, 0xbe, 0xc7, 0x05, 0x1c, 0xbe,
  0xb0, 0x81, 0x0d, 0xbe, 0xee, 0x96, 0xd2, 0x3d, 0x4d, 0x91, 0xbf, 0x3d,
  0xa4, 0xf8, 0x5b, 0x3c, 0xfc, 0xc3, 0x09, 0xbe, 0x43, 0x53, 0xed, 0xbd,
  0x74, 0xdc, 0xc3, 0x3d, 0xa6, 0xa6, 0x05, 0x3e, 0xf9, 0x3c, 0x6e, 0xbe,
  0xa7, 0x84, 0x7c, 0xbe, 0x38, 0x87, 0x89, 0x3e, 0xef, 0x74, 0x48, 0x3e,
  0x11, 0xf0, 0x7a, 0x3e, 0xb7, 0x1d, 0x66, 0xbe, 0x11, 0xe0, 0x3f, 0xbe,
  0x60, 0x01, 0x54, 0xbe, 0xcb, 0x6c, 0xbe, 0x3e, 0x8b, 0x9c, 0xf0, 0x3e,
  0x48, 0xe9, 0x2f, 0x3e, 0x59, 0x71, 0x3a, 0x3e, 0x89, 0xee, 0xbe, 0xbb,
  0x57, 0x82, 0x8f, 0x3d, 0x6b, 0x9a, 0xac, 0x3e, 0x7d, 0x5d, 0x3e, 0x3e,
  0x1b, 0x88, 0x52, 0x3c, 0xe5, 0x28, 0xcd, 0x3d, 0x6f, 0x61, 0xa2, 0x3d,
  0x5c, 0xde, 0x0d, 0xbe, 0x13, 0xb0, 0xc7, 0xbd, 0x96, 0x21, 0x93, 0xbd,
  0x2c, 0xe3, 0x0c, 0xbe, 0x26, 0x2a, 0x01, 0xbe, 0xa7, 0x6f, 0xbc, 0xbd,
  0xd3, 0xae, 0xb3, 0xbd, 0x92, 0xbc, 0x97, 0x3d, 0x47, 0xea, 0x8c, 0x3d,
  0x52, 0x8e, 0xb4, 0xbd, 0x43, 0x16, 0xc7, 0xbe, 0xa1, 0xcc, 0x85, 0x3d,
  0x8e, 0x70, 0x2b, 0x3d, 0xfe, 0x18, 0x80, 0x3e, 0xed, 0x72, 0x27, 0x3c,
  0xdb, 0x87, 0x3e, 0xbd, 0xbe, 0x90, 0xe8, 0xbd, 0x5a, 0xe2, 0xd8, 0x3e,
  0x3c, 0x68, 0x80, 0xbc, 0xe3, 0x47, 0x8f, 0xbd, 0x09, 0xe7, 0x8e, 0xbc,
  0x4e, 0x24, 0x39, 0xbe, 0x2d, 0x73, 0x3c, 0x3e, 0x8b, 0x4a, 0x9d, 0x3c,
  0x59, 0x3a, 0x49, 0x3e, 0x47, 0x5f, 0xbc, 0x3e, 0x5e, 0xad, 0x20, 0xbe,
  0x0c, 0x31, 0x9c, 0xbd, 0xc3, 0xf5, 0x84, 0xbe, 0x6d, 0x96, 0x87, 0x3e,
  0x78, 0x02, 0xa0, 0xbe, 0x12, 0x5e, 0xa0, 0x3e, 0x0c, 0xdd, 0x4d, 0x3e,
  0x6b, 0x46, 0x8e, 0xbe, 0x99, 0x36, 0x23, 0x3e, 0xb2, 0xf2, 0x8d, 0xbe,
  0x37, 0xd8, 0xc2, 0x3c, 0x47, 0x2d, 0x22, 0xbd, 0x21, 0xd9, 0x35, 0x3e,
  0x91, 0xc5, 0x82, 0x3e, 0x96, 0xc7, 0xbf, 0x3e, 0x22, 0xf1, 0xe1, 0x3e,
  0xe2, 0x17, 0xcf, 0x3e, 0x96, 0x1a, 0x7b, 0x3e, 0x47, 0x6d, 0x81, 0x3e,
  0xe0, 0x68, 0x48, 0x3d, 0x31, 0x28, 0x29, 0x3e, 0x55, 0xe5, 0x15, 0xbd,
  0x24, 0x98, 0x37, 0x3a, 0xcf, 0x76, 0x03, 0x3e, 0xc3, 0x34, 0xaf, 0xbd,
  0x28, 0xb0, 0x1e, 0x3e, 0x95, 0x54, 0xa9, 0xbd, 0x4e, 0x14, 0xa5, 0x3d,
  0x5a, 0xd0, 0xf4, 0x3d, 0xb4, 0x44, 0x9e, 0x3c, 0x4d, 0xa9, 0x3f, 0xbe,
  0xe0, 0x3e, 0x13, 0xbe, 0x09, 0x11, 0xc4, 0xbd, 0x7d, 0x41, 0xd2, 0xbd,
  0xfa, 0xac, 0xc9, 0x3d, 0x1b, 0xe5, 0x61, 0x3e, 0xf4, 0xfc, 0x02, 0x3e,
  0x1d, 0x07, 0x91, 0xbe, 0x7a, 0xee, 0x00, 0xbe, 0xd6, 0xa9, 0x14, 0x3e,
  0x5d, 0xad, 0x4e, 0xbe, 0x30, 0xd2, 0x2c, 0x3e, 0xc3, 0xb2, 0xe9, 0x3d,
  0x7b, 0x18, 0x70, 0xbe, 0x9c, 0x9f, 0xcc, 0xbe, 0x36, 0xe8, 0xda, 0x3d,
  0xf9, 0xd4, 0x7f, 0x3d, 0x59, 0x19, 0xba, 0x3d, 0x12, 0x09, 0x37, 0xbd,
  0xa2, 0x4e, 0xc6, 0xbd, 0x9a, 0xf7, 0x6e, 0x3d, 0x58, 0x41, 0xb9, 0xbd,
  0x9f, 0xd7, 0x38, 0xbe, 0x88, 0xbb, 0x2d, 0x3e, 0x25, 0x4a, 0x7b, 0xbe,
  0x10, 0x3d, 0x9f, 0x3d, 0xab, 0x57, 0xac, 0xbd, 0x79, 0xfb, 0x55, 0xbb,
  0x29, 0xf5, 0x88, 0x3d, 0x05, 0x84, 0xe7, 0xba, 0xfb, 0x97, 0x12, 0x3d,
  0xde, 0xa3, 0xef, 0x3d, 0xb6, 0x25, 0x1c, 0x3e, 0xa1, 0xd3, 0x73, 0x3e,
  0xad, 0xc3, 0xa8, 0x3e, 0xce, 0xb6, 0x5d, 0x3e, 0xa6, 0x65, 0x83, 0x3e,
  0x90, 0x68, 0x0c, 0x3e, 0x50, 0xd2, 0x45, 0xbd, 0x22, 0xfe, 0x85, 0xbd,
  0x4f, 0x20, 0xcc, 0x3d, 0x19, 0xd3, 0x19, 0xbe, 0xba, 0x28, 0x2c, 0xbe,
  0x12, 0x5f, 0x8d, 0x3d, 0x71, 0x31, 0xfe, 0x3d, 0xa0, 0xb3, 0xc6, 0xbd,
  0x8d, 0x9f, 0x73, 0xbe, 0x31, 0xb3, 0x1e, 0xbd, 0xff, 0x28, 0x9b, 0xbc,
  0x6a, 0xad, 0xb9, 0x3d, 0x3a, 0xf1, 0x2f, 0xbe, 0x4f, 0x2c, 0x90, 0x3d,
  0x0a, 0x54, 0x45, 0xbe, 0x67, 0xf5, 0x28, 0x3e, 0x8d, 0x1c, 0x74, 0xbe,
  0xfc, 0x59, 0x7f, 0xbd, 0xcd, 0xbd, 0x3b, 0x3e, 0x46, 0x26, 0x2c, 0xbd,
  0xc5, 0x87, 0xb7, 0x3e, 0x22, 0x91, 0xa7, 0x3d, 0xd7, 0xeb, 0x4a, 0x3c,
  0x10, 0x47, 0xca, 0xbe, 0xee, 0xf2, 0x20, 0x3e, 0x89, 0x09, 0x26, 0x3b,
  0x92, 0x55, 0x75, 0xbe, 0x93, 0xdf, 0x72, 0xbe, 0xe5, 0x02, 0x29, 0x3e,
  0x42, 0xb1, 0x1f, 0xbd, 0x4b, 0x10, 0x3b, 0x3e, 0xbf, 0x0c, 0x93, 0xbd,
  0x5b, 0x1a, 0x8e, 0x3d, 0x8c, 0x2b, 0x23, 0xbd, 0xcc, 0x12, 0x3b, 0xbe,
  0x74, 0x0c, 0x0d, 0x3e, 0x6a, 0x79, 0x94, 0xbd, 0xde, 0x52, 0xeb, 0x3d,
  0xdc, 0xa6, 0x3c, 0x3e, 0x39, 0xfb, 0x05, 0xbe, 0x05, 0xb9, 0xec, 0xbd,
  0x0a, 0x3f, 0xce, 0x3d, 0x57, 0x20, 0x26, 0x3e, 0xc4, 0x50, 0x2b, 0xbe,
  0x01, 0x25, 0x3b, 0x3e, 0x3a, 0xe2, 0xc9, 0xbd, 0x4b, 0xc7, 0xd4, 0xbd,
  0x09, 0xb7, 0x2a, 0x3e, 0x5d, 0x10, 0x6f, 0x3e, 0x19, 0x09, 0xb2, 0x3d,
  0x87, 0x27, 0x31, 0xbe, 0x87, 0x50, 0xd9, 0x3d, 0xe4, 0x9f, 0x4f, 0xbd,
  0xb0, 0xa7, 0x48, 0xbe, 0xbe, 0x6a, 0x0f, 0x3e, 0x88, 0xd7, 0x87, 0x3e,
  0x6f, 0xd4, 0x85, 0xbd, 0x8d, 0xcc, 0x4b, 0x3e, 0x19, 0x4b, 0x22, 0xbe,
  0xa9, 0xb5, 0x78, 0xbe, 0xf0, 0x71, 0xe4, 0xbd, 0x36, 0x83, 0x17, 0xbd,
  0x72, 0x60, 0x91, 0x3d, 0x36, 0xc3, 0x08, 0x3e, 0x5c, 0x64, 0x87, 0x3d,
  0x11, 0x1d, 0xe1, 0xbd, 0x06, 0xb9, 0xe4, 0x3d, 0x4e, 0x89, 0xd5, 0xbe,
  0x00, 0xa8, 0xab, 0x3c, 0xc2, 0xb0, 0x63, 0x3c, 0xae, 0x78, 0x7e, 0xbe,
  0x17, 0xcb, 0x6f, 0xbb, 0xc0, 0x3d, 0x37, 0xbe, 0x73, 0xce, 0xed, 0xbc,
  0xc1, 0x9f, 0x68, 0xbe, 0x21, 0x34, 0x5b, 0xbc, 0x65, 0x11, 0xee, 0xbc,
  0x91, 0xf0, 0x4d, 0xbd, 0xf4, 0x26, 0x9f, 0xbd, 0xfe, 0x8f, 0x09, 0x3c,
  0xfc, 0xfb, 0x9e, 0xbd, 0x77, 0x1a, 0xc5, 0x3d, 0x82, 0xa1, 0x98, 0x3e,
  0x04, 0x87, 0xbc, 0xbd, 0x1a, 0x2b, 0x0c, 0xbe, 0x4c, 0x6b, 0xb9, 0xbd,
  0x14, 0xcf, 0x31, 0xbe, 0x14, 0x46, 0xb3, 0x3e, 0x9a, 0xc4, 0x59, 0x3c,
  0x86, 0x75, 0x57, 0x3e, 0xdc, 0x89, 0x1a, 0x3e, 0x65, 0xb3, 0x3e, 0x3d,
  0x53, 0x81, 0x68, 0x3e, 0x6e, 0xd6, 0x9a, 0x3e, 0x5f, 0x3e, 0x8a, 0x3e,
  0x57, 0xf4, 0xdc, 0x3d, 0xfe, 0xb7, 0x22, 0xbe, 0xd7, 0x87, 0x13, 0xbe,
  0xb0, 0x0a, 0x94, 0x3e, 0x9a, 0xce, 0x33, 0xbe, 0x77, 0xf4, 0x09, 0x3e,
  0xb1, 0xda, 0x07, 0x3c, 0xd2, 0x7c, 0xb5, 0x3e, 0xe1, 0x47, 0xa5, 0x3d,
  0x18, 0xfe, 0xfd, 0x3d, 0x1a, 0x67, 0x63, 0xbb, 0x32, 0xfa, 0x72, 0x3e,
  0xe4, 0xe8, 0x60, 0x3d, 0x8a, 0x17, 0xb2, 0x3d, 0xa1, 0xd8, 0xcf, 0x3e,
  0xa4, 0xca, 0xa6, 0x3e, 0x05, 0x56, 0xd4, 0x3d, 0xa6, 0x83, 0x42, 0xbe,
  0xc1, 0xfe, 0xe5, 0xbd, 0x7b, 0xa1, 0x0f, 0x3e, 0x56, 0xdf, 0xad, 0x3e,
  0xd5, 0x79, 0x5f, 0x3e, 0x9d, 0x68, 0xe5, 0x3d, 0xa4, 0x10, 0x13, 0xbd,
  0x56, 0x40, 0x81, 0xbe, 0xfc, 0xc0, 0x07, 0xbe, 0xd6, 0x4c, 0x76, 0x3c,
  0x00, 0xe0, 0x3c, 0xbe, 0xdf, 0x43, 0x2f, 0x3e, 0x29, 0xfa, 0x10, 0x3e,
  0x3d, 0xca, 0x1b, 0x3e, 0x00, 0x1c, 0xa4, 0x3d, 0x34, 0x74, 0x53, 0x3c,
  0xc1, 0xaf, 0xac, 0x3d, 0xdd, 0x60, 0x1c, 0xbe, 0x2d, 0x43, 0x33, 0xbd,
  0xe4, 0xfc, 0x29, 0x3e, 0xd7, 0x49, 0xd9, 0xbd, 0x60, 0x9e, 0x3d, 0x3e,
  0x51, 0xbe, 0x89, 0xbd, 0x7a, 0x40, 0xdf, 0xbd, 0x63, 0xe5, 0x5e, 0x3e,
  0xc6, 0x75, 0x4d, 0xbc, 0xba, 0x4f, 0xd9, 0x3d, 0x17, 0x8d, 0x8a, 0xbd,
  0x2b, 0xe2, 0x1c, 0xbe, 0x5d, 0x9c, 0x94, 0xbc, 0xef, 0x9b, 0xc0, 0xbd,
  0x6c, 0x40, 0x61, 0x3d, 0xd3, 0xb1, 0x12, 0xbc, 0xff, 0x75, 0xe0, 0x3d,
  0x4a, 0x3b, 0x13, 0x3f, 0x92, 0xab, 0x47, 0x3e, 0xae, 0x9a, 0xc0, 0x3c,
  0x0d, 0x9f, 0x85, 0xbd, 0xb1, 0x78, 0x8d, 0xbe, 0x26, 0x5b, 0x50, 0x3c,
  0x3b, 0x77, 0xbe, 0xbe, 0x73, 0xd9, 0xb3, 0x3e, 0xa5, 0xbd, 0x78, 0xbe,
  0x23, 0xb2, 0x63, 0x3e, 0x33, 0xd7, 0x9a, 0x3e, 0xbb, 0x0b, 0x6d, 0x3c,
  0xc1, 0x30, 0x2a, 0x3d, 0xcf, 0x61, 0xdc, 0x3c, 0xb1, 0x8f, 0x92, 0xbd,
  0x3a, 0x3c, 0x3c, 0xbd, 0x47, 0x38, 0x49, 0x3e, 0x58, 0x95, 0x4b, 0xbe,
  0x46, 0xd3, 0x0f, 0xbe, 0x37, 0x3e, 0xee, 0x3c, 0x8b, 0xb4, 0x9c, 0x3d,
  0x18, 0x9b, 0xe4, 0xbd, 0x98, 0xdb, 0x20, 0x3d, 0xc4, 0xa1, 0xcf, 0x3d,
  0x62, 0xaf, 0x71, 0x3e, 0x36, 0x05, 0xb8, 0x3e, 0x63, 0x34, 0xd8, 0x3e,
  0x5f, 0x11, 0x83, 0xbe, 0x31, 0x32, 0xbe, 0xbd, 0x2f, 0x65, 0x82, 0x3e,
  0x2c, 0x0f, 0x34, 0x3e, 0x21, 0x7f, 0xf0, 0xbd, 0xbd, 0x05, 0x97, 0x3d,
  0x71, 0x92, 0x97, 0x3d, 0x52, 0x1c, 0x53, 0x3e, 0xda, 0xe4, 0x58, 0xbc,
  0x3f, 0xbd, 0x8b, 0x3e, 0xe7, 0x01, 0xd0, 0xbd, 0xc6, 0x0d, 0x34, 0xbd,
  0xaa, 0x8a, 0xe2, 0xbd, 0x48, 0x5a, 0xec, 0x3c, 0xac, 0xd3, 0x55, 0x3c,
  0x13, 0x0e, 0x7e, 0x3e, 0xb4, 0x8f, 0x5b, 0x3d, 0xf4, 0x42, 0x6f, 0x3d,
  0x49, 0xa6, 0x18, 0xbd, 0xdc, 0x09, 0xda, 0x3d, 0x1b, 0xee, 0x26, 0x3e,
  0xbc, 0x15, 0x3e, 0x3e, 0xbf, 0x88, 0x70, 0xbd, 0x63, 0x2c, 0xd6, 0xbd,
  0x44, 0x00, 0xe8, 0xbd, 0x92, 0x62, 0x50, 0x3e, 0xe0, 0x8e, 0x98, 0x3e,
  0xf1, 0xe8, 0xf5, 0x3b, 0xf8, 0x93, 0x4f, 0x3e, 0xe9, 0xd5, 0xd5, 0x3c,
  0x35, 0x6a, 0x01, 0x3e, 0x30, 0x80, 0x7f, 0x3e, 0x26, 0xc8, 0x79, 0x3c,
  0x1c, 0xa6, 0x17, 0x3e, 0x11, 0x03, 0x46, 0x3d, 0xed, 0xb0, 0x01, 0x3e,
  0xb7, 0x78, 0x77, 0x3e, 0x2c, 0x6e, 0x1a, 0xbe, 0x8f, 0x69, 0x7a, 0x3e,
  0x1b, 0x97, 0xff, 0x3d, 0x26, 0x6d, 0x06, 0x3d, 0x4a, 0x57, 0x50, 0xbe,
  0x31, 0x5a, 0x7e, 0xbe, 0xa8, 0xf5, 0xc9, 0xbc, 0x7c, 0x6d, 0x89, 0xbd,
  0xc3, 0x51, 0x14, 0x3c, 0xb3, 0xf0, 0x48, 0xbc, 0xd3, 0x0f, 0x04, 0x3e,
  0x0a, 0x96, 0xe9, 0x3e, 0x16, 0xd0, 0xf3, 0xbd, 0xc0, 0x8f, 0x09, 0x3f,
  0xfa, 0x5f, 0x2f, 0x3e, 0x8d, 0xeb, 0x80, 0x3e, 0xa2, 0x3b, 0x8b, 0x3e,
  0x14, 0xd9, 0xb1, 0x3d, 0x2a, 0x6d, 0x0b, 0xbd, 0x94, 0x64, 0xa6, 0x3e,
  0x7f, 0xaa, 0x22, 0x3e, 0xc9, 0x68, 0x4e, 0x3e, 0x88, 0x8b, 0x95, 0xbc,
  0x18, 0x7b, 0x14, 0xbe, 0x37, 0x9e, 0xd9, 0xbe, 0xd2, 0x01, 0xd5, 0x3d,
  0xb9, 0x21, 0xf3, 0x3e, 0x5a, 0xd3, 0xe8, 0x3c, 0xf2, 0x6b, 0xc9, 0xbe,
  0xcb, 0x54, 0xb1, 0x3d, 0x13, 0xc2, 0x88, 0xbc, 0xb0, 0xd8, 0xc6, 0xbe,
  0xe7, 0x05, 0x06, 0xbe, 0x10, 0xdd, 0x15, 0xbd, 0xc9, 0x77, 0xb9, 0x3c,
  0x7c, 0xb8, 0x4a, 0x3d, 0x3b, 0x26, 0x47, 0x3e, 0x5a, 0xc7, 0xed, 0xbd,
  0x01, 0x28, 0xbd, 0x3c, 0xf5, 0x01, 0x2d, 0xbe, 0xce, 0x8c, 0x59, 0xbe,
  0x15, 0x3a, 0x29, 0xbd, 0x24, 0xc1, 0xcd, 0xbe, 0xdb, 0xf2, 0x45, 0xbe,
  0x45, 0x06, 0x53, 0xbe, 0xad, 0x9d, 0x88, 0x3e, 0x02, 0x6d, 0xb3, 0xbc,
  0x00, 0xe1, 0x8e, 0xbe, 0x57, 0xd8, 0x23, 0x3e, 0x75, 0xf3, 0x82, 0xbe,
  0xf1, 0xee, 0x57, 0x3e, 0x1c, 0x9c, 0x97, 0xbd, 0xe8, 0x6f, 0xbd, 0xbc,
  0x81, 0x61, 0x84, 0x3d, 0xbe, 0xac, 0x1c, 0x3e, 0xab, 0xa3, 0xd2, 0x3e,
  0x0a, 0x83, 0x3a, 0xbe, 0x7c, 0xdd, 0xc3, 0x3d, 0x70, 0x15, 0xe1, 0xbe,
  0xd9, 0xa7, 0x94, 0xbe, 0x50, 0x0b, 0x2b, 0x3e, 0x36, 0xb6, 0x10, 0x3e,
  0x45, 0xb4, 0x29, 0xbe, 0xbe, 0x93, 0x33, 0x3c, 0x15, 0x84, 0xab, 0x3e,
  0x81, 0xe6, 0xb4, 0x3d, 0x43, 0x25, 0xe7, 0xbc, 0xe8, 0x78, 0x34, 0xbc,
  0x87, 0x22, 0x98, 0x3e, 0x82, 0xe9, 0xea, 0x3d, 0x4a, 0xcb, 0x55, 0x3e,
  0xe0, 0xc4, 0xb6, 0x3d, 0x57, 0x80, 0x86, 0xbd, 0xcf, 0x46, 0xd9, 0x3e,
  0x54, 0xb9, 0x4f, 0x3e, 0xb8, 0x7c, 0xef, 0xbe, 0x72, 0x6a, 0x6e, 0xbe,
  0xd3, 0x50, 0x82, 0x3d, 0x9a, 0xa7, 0x6e, 0xbe, 0x96, 0xef, 0xf2, 0x3d,
  0xa8, 0x69, 0xe0, 0xbe, 0xf1, 0x60, 0xcd, 0xbd, 0xf2, 0xd6, 0x9a, 0xbd,
  0x1f, 0x6c, 0xab, 0xbe, 0xbc, 0x96, 0x22, 0xbe, 0xe8, 0x9a, 0xa5, 0xbe,
  0xf2, 0xa5, 0xb1, 0xbe, 0xb8, 0x13, 0xa2, 0xbd, 0x5d, 0x25, 0xae, 0xbd,
  0x7d, 0x5a, 0x99, 0xbe, 0x06, 0xd3, 0x2a, 0x3c, 0xc6, 0x19, 0xbe, 0xbd,
  0xd9, 0x07, 0x3b, 0xbc, 0xf4, 0xa9, 0xb8, 0x3e, 0x39, 0x45, 0xc3, 0xbd,
  0xc0, 0x2d, 0x76, 0xbd, 0xbb, 0x5d, 0xe9, 0x3d, 0x44, 0x6b, 0xea, 0xbd,
  0x93, 0x03, 0x41, 0xbd, 0x47, 0x4f, 0x53, 0xbc, 0x0f, 0xdc, 0x82, 0xbe,
  0xb8, 0xe0, 0x89, 0xbe, 0x51, 0x7e, 0x6f, 0x3e, 0x68, 0x96, 0x25, 0xbe,
  0x67, 0x17, 0x58, 0xbc, 0x44, 0x09, 0x4e, 0x3e, 0x26, 0x44, 0x81, 0xbd,
  0xff, 0xcd, 0xa9, 0xbd, 0xa0, 0x47, 0x8f, 0x3c, 0x2a, 0xf3, 0x8f, 0x3e,
  0xc3, 0x41, 0xcd, 0xbd, 0xe3, 0x27, 0x28, 0xbe, 0xc0, 0xf9, 0xf7, 0x3d,
  0x51, 0xeb, 0x90, 0x3d, 0xf0, 0x77, 0x35, 0xbe, 0xb0, 0x88, 0x11, 0x3e,
  0x44, 0xf1, 0x1b, 0x3d, 0x66, 0xdd, 0x97, 0xbc, 0xb4, 0x02, 0x5d, 0xbe,
  0xf1, 0xf7, 0x79, 0xbe, 0x57, 0xcd, 0x44, 0x3d, 0xa3, 0x6d, 0x28, 0xbe,
  0x0e, 0xce, 0x55, 0xbc, 0xcf, 0xf3, 0x27, 0xbe, 0xf4, 0xad, 0xad, 0xbc,
  0x93, 0x85, 0x3f, 0x3d, 0xef, 0xa8, 0x28, 0x3e, 0xfd, 0x02, 0xf2, 0x3d,
  0x3c, 0x81, 0x9c, 0x3d, 0x2c, 0x39, 0x24, 0xbe, 0x2e, 0x33, 0xab, 0x3d,
  0x33, 0xfb, 0x05, 0xbe, 0x66, 0xe3, 0x38, 0xbe, 0xd8, 0x25, 0x06, 0xbe,
  0x90, 0x57, 0x5d, 0xbc, 0x2b, 0x94, 0x80, 0xbc, 0xfb, 0x43, 0xf0, 0x3d,
  0xc8, 0x1e, 0x0a, 0x3e, 0xbf, 0x19, 0x10, 0xbb, 0x07, 0x00, 0xb8, 0xbe,
  0x65, 0x05, 0x92, 0xbe, 0x63, 0xd4, 0x02, 0x3d, 0xf4, 0xa6, 0xd0, 0xbd,
  0xb0, 0x1e, 0xa4, 0x3d, 0xaf, 0xb3, 0x34, 0x3e, 0x40, 0x27, 0x17, 0x3e,
  0xa6, 0x9d, 0x0a, 0x3e, 0x74, 0x86, 0x1b, 0xbe, 0x99, 0x4c, 0x53, 0xbd,
  0x2d, 0x81, 0x55, 0xbc, 0xe7, 0x92, 0x18, 0xbe, 0xcc, 0x5f, 0x8b, 0x3e,
  0xd9, 0x82, 0x70, 0xbe, 0x00, 0xa8, 0x01, 0xbd, 0x8e, 0x88, 0xd8, 0xbd,
  0x9e, 0xba, 0x3c, 0xbd, 0xeb, 0xa9, 0x2f, 0x3d, 0xdd, 0x69, 0x51, 0xbe,
  0xc5, 0x13, 0x1f, 0x3e, 0xf5, 0x38, 0x57, 0x3d, 0x08, 0xc4, 0x68, 0x3e,
  0xb2, 0x9e, 0xa3, 0xbe, 0x6a, 0xa7, 0x8b, 0xbe, 0xa4, 0x60, 0xa6, 0x3d,
  0xce, 0x37, 0x43, 0x3e, 0x96, 0x32, 0xe2, 0x3d, 0x27, 0x5c, 0x6d, 0x3e,
  0x37, 0x14, 0xa3, 0x3e, 0x94, 0x42, 0x71, 0x3e, 0x87, 0xc1, 0x6a, 0xbe,
  0x1f, 0x67, 0x65, 0xbe, 0xbe, 0xed, 0xbc, 0xbe, 0x85, 0xa1, 0x65, 0x3e,
  0xbb, 0x5f, 0x4e, 0x3e, 0xce, 0x19, 0x8c, 0x3d, 0x1a, 0x75, 0x63, 0x3e,
  0x9f, 0x62, 0xe0, 0x3c, 0xe1, 0x4f, 0xec, 0x3d, 0x6e, 0xe3, 0x86, 0xbe,
  0x1d, 0x07, 0x69, 0xbe, 0x9d, 0xbd, 0x90, 0x3c, 0x4d, 0x08, 0x2a, 0x3e,
  0xbf, 0x7b, 0x45, 0x3e, 0x72, 0xc4, 0x40, 0xbc, 0x4b, 0x66, 0x11, 0xbe,
  0xb2, 0x07, 0xe3, 0xbe, 0xa7, 0xc4, 0xbf, 0xbd, 0x33, 0xd4, 0x06, 0xbe,
  0x1f, 0x0b, 0x84, 0x3d, 0x44, 0x60, 0x14, 0xbe, 0x82, 0x91, 0x97, 0xbd,
  0x59, 0x39, 0xce, 0x3d, 0x83, 0x44, 0x37, 0x3e, 0xa6, 0x00, 0x0c, 0xbe,
  0xa2, 0x27, 0x85, 0x3e, 0xe8, 0xa6, 0x68, 0x3c, 0xaf, 0x77, 0x78, 0xbe,
  0x5a, 0x0b, 0xbe, 0xbd, 0x49, 0x05, 0xd2, 0xbd, 0xf4, 0x1f, 0x59, 0x3e,
  0xc6, 0xb3, 0x79, 0x3e, 0xe6, 0x47, 0x26, 0xbe, 0xf2, 0x6d, 0xe9, 0xbe,
  0xf6, 0x02, 0x49, 0xbe, 0xc4, 0xfb, 0xb5, 0x3d, 0xca, 0xa7, 0x9b, 0xbe,
  0x6f, 0xf8, 0x21, 0xbd, 0xe8, 0xca, 0xa8, 0xbc, 0x70, 0xd4, 0xac, 0x3d,
  0x96, 0xc8, 0xd8, 0xbd, 0x42, 0x3e, 0x1e, 0x3d, 0x2d, 0x00, 0xe0, 0xbd,
  0xa7, 0x57, 0x6e, 0x3d, 0x93, 0x64, 0x02, 0xbe, 0x74, 0xab, 0x44, 0x3c,
  0x02, 0x04, 0x65, 0xbd, 0x4e, 0xb6, 0x1f, 0x3e, 0x11, 0xa1, 0xcd, 0x3c,
  0x3d, 0x01, 0x2d, 0x3e, 0x80, 0x6f, 0xb4, 0x3d, 0x9b, 0xde, 0x58, 0x3e,
  0x68, 0xd5, 0xe9, 0x3d, 0xfb, 0x8d, 0xda, 0x3d, 0x11, 0x04, 0xd2, 0x3a,
  0xcb, 0x89, 0xa8, 0x3e, 0xc4, 0x72, 0xb5, 0x3e, 0xc9, 0xcd, 0x39, 0xbb,
  0x76, 0xe6, 0x29, 0xbd, 0x2a, 0x52, 0x39, 0xbe, 0xa8, 0x08, 0xe5, 0xbc,
  0x58, 0xd2, 0x40, 0xbe, 0x7b, 0x59, 0x43, 0x3d, 0x51, 0xf3, 0x5b, 0xbe,
  0x58, 0x70, 0x05, 0xbe, 0x71, 0xe0, 0x92, 0x3e, 0xbe, 0x49, 0xe3, 0x3d,
  0xbd, 0x46, 0x15, 0xbc, 0xa2, 0xc5, 0x09, 0xbc, 0x5e, 0x57, 0xdb, 0xbd,
  0x2f, 0x38, 0xcf, 0x3d, 0xbb, 0x55, 0x1e, 0xbe, 0x4d, 0x62, 0x07, 0xbe,
  0x4b, 0x70, 0xa8, 0x3c, 0x26, 0x14, 0x5a, 0x3d, 0x1d, 0xcc, 0x33, 0xbc,
  0xe7, 0xfe, 0xe7, 0xbd, 0x5d, 0x24, 0xcb, 0xbc, 0x86, 0xf2, 0xac, 0xbc,
  0x69, 0xd1, 0x81, 0xbe, 0x0a, 0x1a, 0x23, 0xbe, 0xbc, 0xc5, 0x30, 0x3e,
  0x55, 0xe2, 0x07, 0xbd, 0x17, 0xcc, 0x39, 0x3e, 0xef, 0x17, 0x56, 0xbd,
  0xb1, 0xcc, 0x8e, 0x3c, 0xf7, 0x8c, 0xdd, 0xbd, 0x3f, 0xf8, 0x1e, 0xbe,
  0x6e, 0x74, 0x9f, 0xbd, 0x2a, 0xcb, 0xe7, 0xbc, 0x34, 0xfd, 0x28, 0x3e,
  0x56, 0xfe, 0xff, 0xff, 0x2c, 0x00, 0x00, 0x00, 0x04, 0x00, 0x00, 0x00,
  0x08, 0x00, 0x00, 0x00, 0x2c, 0x00, 0x00, 0x00, 0x17, 0x00, 0x00, 0x00,
  0x73, 0x65, 0x71, 0x75, 0x65, 0x6e, 0x74, 0x69, 0x61, 0x6c, 0x2f, 0x64,
  0x65, 0x6e, 0x73, 0x65, 0x2f, 0x4d, 0x61, 0x74, 0x4d, 0x75, 0x6c, 0x00,
  0x02, 0x00, 0x00, 0x00, 0x30, 0x00, 0x00, 0x00, 0x41, 0x00, 0x00, 0x00,
  0xd8, 0xfd, 0xff, 0xff, 0x6a, 0xff, 0xff, 0xff, 0x04, 0x00, 0x00, 0x00,
  0x2c, 0x00, 0x00, 0x00, 0xd4, 0x86, 0xb0, 0xbe, 0x3b, 0x1d, 0xd0, 0xbe,
  0x70, 0x5b, 0x3a, 0x3f, 0x0e, 0xb1, 0x41, 0xbd, 0x0d, 0x99, 0x83, 0x3c,
  0x3e, 0xaa, 0x0b, 0x3f, 0x9e, 0xcb, 0xa1, 0x3d, 0x37, 0xd0, 0x07, 0xbe,
  0x01, 0x32, 0xd1, 0xbe, 0x32, 0x30, 0x42, 0xbe, 0xdd, 0xe2, 0x98, 0xbc,
  0xce, 0xfe, 0xff, 0xff, 0x48, 0x00, 0x00, 0x00, 0x03, 0x00, 0x00, 0x00,
  0x08, 0x00, 0x00, 0x00, 0x48, 0x00, 0x00, 0x00, 0x32, 0x00, 0x00, 0x00,
  0x73, 0x65, 0x71, 0x75, 0x65, 0x6e, 0x74, 0x69, 0x61, 0x6c, 0x2f, 0x64,
  0x65, 0x6e, 0x73, 0x65, 0x5f, 0x31, 0x2f, 0x42, 0x69, 0x61, 0x73, 0x41,
  0x64, 0x64, 0x2f, 0x52, 0x65, 0x61, 0x64, 0x56, 0x61, 0x72, 0x69, 0x61,
  0x62, 0x6c, 0x65, 0x4f, 0x70, 0x2f, 0x72, 0x65, 0x73, 0x6f, 0x75, 0x72,
  0x63, 0x65, 0x00, 0x00, 0x01, 0x00, 0x00, 0x00, 0x0b, 0x00, 0x00, 0x00,
  0x04, 0x00, 0x06, 0x00, 0x04, 0x00, 0x00, 0x00, 0x00, 0x00, 0x06, 0x00,
  0x08, 0x00, 0x04, 0x00, 0x06, 0x00, 0x00, 0x00, 0x04, 0x00, 0x00, 0x00,
  0xc0, 0x00, 0x00, 0x00, 0xaf, 0xd2, 0x42, 0xbe, 0xec, 0xae, 0xd4, 0x3e,
  0x46, 0xa6, 0x12, 0x3f, 0xe4, 0x82, 0xcf, 0x3d, 0xda, 0xe2, 0x2e, 0x3f,
  0x01, 0xb2, 0x06, 0x3e, 0x8a, 0x1e, 0xb3, 0x3e, 0x4d, 0xeb, 0x75, 0xbc,
  0x8d, 0x10, 0x9e, 0xbe, 0xa5, 0xc8, 0x5a, 0x3e, 0x6b, 0x8e, 0xb1, 0x3d,
  0x5a, 0xdc, 0x86, 0x3e, 0x47, 0x8a, 0xd0, 0xbd, 0x01, 0x36, 0x12, 0xbe,
  0x98, 0x9d, 0xb2, 0x3e, 0x38, 0x84, 0x04, 0xbd, 0xc1, 0xb4, 0x75, 0x3e,
  0x51, 0x09, 0x83, 0x3d, 0x9b, 0x1c, 0x29, 0x3e, 0xbe, 0x42, 0x09, 0xbe,
  0x75, 0x2c, 0x50, 0x3e, 0x8c, 0x51, 0x16, 0xbe, 0x82, 0xdb, 0xd4, 0xbd,
  0x8f, 0x22, 0xb3, 0x3e, 0x10, 0x4d, 0x20, 0xbd, 0xbd, 0xe0, 0x36, 0x3d,
  0x6e, 0x07, 0xb2, 0x3d, 0x06, 0xdf, 0x82, 0x3d, 0xa2, 0xc7, 0x9f, 0x3c,
  0x78, 0x07, 0x63, 0x3c, 0x1c, 0x3d, 0xcd, 0xbd, 0xa6, 0x9f, 0x95, 0x3d,
  0x2a, 0x57, 0x9d, 0x3c, 0x4a, 0x61, 0xb3, 0x3e, 0xce, 0xad, 0x5e, 0x3d,
  0x66, 0xf4, 0x4c, 0xbe, 0x22, 0x07, 0xd4, 0x3e, 0xa7, 0x5a, 0x5a, 0x3e,
  0x4b, 0x73, 0x18, 0xbe, 0xeb, 0x65, 0x39, 0xbe, 0xce, 0x09, 0xb3, 0x3d,
  0x50, 0x53, 0x48, 0xbe, 0x1f, 0x7f, 0xdf, 0xbb, 0x28, 0x1f, 0x0f, 0x3d,
  0x7a, 0x98, 0xcf, 0x3e, 0xc2, 0x4e, 0x31, 0xbe, 0xc0, 0x4b, 0xbc, 0x3e,
  0x67, 0xa0, 0x8a, 0xbd, 0x00, 0x00, 0x0e, 0x00, 0x14, 0x00, 0x04, 0x00,
  0x00, 0x00, 0x08, 0x00, 0x0c, 0x00, 0x10, 0x00, 0x0e, 0x00, 0x00, 0x00,
  0x48, 0x00, 0x00, 0x00, 0x02, 0x00, 0x00, 0x00, 0x08, 0x00, 0x00, 0x00,
  0x44, 0x00, 0x00, 0x00, 0x30, 0x00, 0x00, 0x00, 0x73, 0x65, 0x71, 0x75,
  0x65, 0x6e, 0x74, 0x69, 0x61, 0x6c, 0x2f, 0x64, 0x65, 0x6e, 0x73, 0x65,
  0x2f, 0x42, 0x69, 0x61, 0x73, 0x41, 0x64, 0x64, 0x2f, 0x52, 0x65, 0x61,
  0x64, 0x56, 0x61, 0x72, 0x69, 0x61, 0x62, 0x6c, 0x65, 0x4f, 0x70, 0x2f,
  0x72, 0x65, 0x73, 0x6f, 0x75, 0x72, 0x63, 0x65, 0x00, 0x00, 0x00, 0x00,
  0x01, 0x00, 0x00, 0x00, 0x30, 0x00, 0x00, 0x00, 0xa8, 0xff, 0xff, 0xff,
  0x14, 0x00, 0x18, 0x00, 0x04, 0x00, 0x00, 0x00, 0x08, 0x00, 0x0c, 0x00,
  0x10, 0x00, 0x00, 0x00, 0x00, 0x00, 0x14, 0x00, 0x14, 0x00, 0x00, 0x00,
  0x2c, 0x00, 0x00, 0x00, 0x01, 0x00, 0x00, 0x00, 0x18, 0x00, 0x00, 0x00,
  0x2c, 0x00, 0x00, 0x00, 0x04, 0x00, 0x00, 0x00, 0x02, 0x00, 0x00, 0x00,
  0xff, 0xff, 0xff, 0xff, 0x41, 0x00, 0x00, 0x00, 0x07, 0x00, 0x00, 0x00,
  0x69, 0x6e, 0x70, 0x75, 0x74, 0x5f, 0x31, 0x00, 0x02, 0x00, 0x00, 0x00,
